#include "magic_wand_model_data.h"

// We need to keep the data array aligned on some architectures.
#ifdef __has_attribute
#define HAVE_ATTRIBUTE(x) __has_attribute(x)
#else
#define HAVE_ATTRIBUTE(x) 0
#endif
#if HAVE_ATTRIBUTE(aligned) || (defined(__GNUC__) && !defined(__clang__))
#define DATA_ALIGN_ATTRIBUTE __attribute__((aligned(4)))
#else
#define DATA_ALIGN_ATTRIBUTE
#endif

const unsigned char g_magic_wand_model_data[] DATA_ALIGN_ATTRIBUTE = {
  0x1c, 0x00, 0x00, 0x00, 0x54, 0x46, 0x4c, 0x33, 0x14, 0x00, 0x20, 0x00,
  0x04, 0x00, 0x08, 0x00, 0x0c, 0x00, 0x10, 0x00, 0x14, 0x00, 0x00, 0x00,
  0x18, 0x00, 0x1c, 0x00, 0x14, 0x00, 0x00, 0x00, 0x03, 0x00, 0x00, 0x00,
  0x18, 0x00, 0x00, 0x00, 0x2c, 0x00, 0x00, 0x00, 0xd8, 0x00, 0x00, 0x00,
  0x2c, 0x00, 0x00, 0x00, 0x80, 0x00, 0x00, 0x00, 0x78, 0x00, 0x00, 0x00,
  0x05, 0x00, 0x00, 0x00, 0x28, 0x07, 0x00, 0x00, 0x44, 0x06, 0x00, 0x00,
  0xbc, 0x03, 0x00, 0x00, 0xf8, 0x02, 0x00, 0x00, 0xac, 0x01, 0x00, 0x00,
  0x01, 0x00, 0x00, 0x00, 0xd0, 0x00, 0x00, 0x00, 0x14, 0x00, 0x00, 0x00,
  0xdc, 0x32, 0x00, 0x00, 0xd8, 0x32, 0x00, 0x00, 0xd0, 0x31, 0x00, 0x00,
  0x1c, 0x31, 0x00, 0x00, 0x74, 0x30, 0x00, 0x00, 0xfc, 0x2f, 0x00, 0x00,
  0x90, 0x2f, 0x00, 0x00, 0x40, 0x13, 0x00, 0x00, 0xec, 0x11, 0x00, 0x00,
  0x10, 0x10, 0x00, 0x00, 0xb4, 0x07, 0x00, 0x00, 0xb0, 0x32, 0x00, 0x00,
  0xac, 0x32, 0x00, 0x00, 0xa8, 0x32, 0x00, 0x00, 0xa4, 0x32, 0x00, 0x00,
  0xa0, 0x32, 0x00, 0x00, 0x9c, 0x32, 0x00, 0x00, 0x98, 0x32, 0x00, 0x00,
  0x94, 0x32, 0x00, 0x00, 0x3c, 0x00, 0x00, 0x00, 0x00, 0x00, 0x00, 0x00,
  0x01, 0x00, 0x00, 0x00, 0x0c, 0x00, 0x00, 0x00, 0x08, 0x00, 0x0c, 0x00,
  0x04, 0x00, 0x08, 0x00, 0x08, 0x00, 0x00, 0x00, 0x08, 0x00, 0x00, 0x00,
  0x13, 0x00, 0x00, 0x00, 0x13, 0x00, 0x00, 0x00, 0x6d, 0x69, 0x6e, 0x5f,
  0x72, 0x75, 0x6e, 0x74, 0x69, 0x6d, 0x65, 0x5f, 0x76, 0x65, 0x72, 0x73,
  0x69, 0x6f, 0x6e, 0x00, 0xb6, 0xce, 0xff, 0xff, 0x04, 0x00, 0x00, 0x00,
  0x10, 0x00, 0x00, 0x00, 0x31, 0x2e, 0x35, 0x2e, 0x30, 0x00, 0x00, 0x00,
  0x00, 0x00, 0x00, 0x00, 0x00, 0x00, 0x00, 0x00, 0x0f, 0x00, 0x00, 0x00,
  0x4d, 0x4c, 0x49, 0x52, 0x20, 0x43, 0x6f, 0x6e, 0x76, 0x65, 0x72, 0x74,
  0x65, 0x64, 0x2e, 0x00, 0x00, 0x00, 0x0e, 0x00, 0x18, 0x00, 0x04, 0x00,
  0x08, 0x00, 0x0c, 0x00, 0x10, 0x00, 0x14, 0x00, 0x0e, 0x00, 0x00, 0x00,
  0x14, 0x00, 0x00, 0x00, 0x5c, 0x00, 0x00, 0x00, 0x60, 0x00, 0x00, 0x00,
  0x64, 0x00, 0x00, 0x00, 0x84, 0x00, 0x00, 0x00, 0x12, 0x00, 0x00, 0x00,
  0x9c, 0x31, 0x00, 0x00, 0x2c, 0x31, 0x00, 0x00, 0x88, 0x30, 0x00, 0x00,
  0xe0, 0x2f, 0x00, 0x00, 0x38, 0x2f, 0x00, 0x00, 0xd4, 0x2e, 0x00, 0x00,
  0x6c, 0x2e, 0x00, 0x00, 0x18, 0x12, 0x00, 0x00, 0xbc, 0x10, 0x00, 0x00,
  0xe0, 0x0e, 0x00, 0x00, 0x0c, 0x06, 0x00, 0x00, 0x28, 0x05, 0x00, 0x00,
  0xe8, 0x03, 0x00, 0x00, 0x3c, 0x03, 0x00, 0x00, 0x98, 0x02, 0x00, 0x00,
  0xd4, 0x01, 0x00, 0x00, 0x10, 0x01, 0x00, 0x00, 0x84, 0x00, 0x00, 0x00,
  0x01, 0x00, 0x00, 0x00, 0x00, 0x00, 0x00, 0x00, 0x01, 0x00, 0x00, 0x00,
  0x11, 0x00, 0x00, 0x00, 0x08, 0x00, 0x00, 0x00, 0x74, 0x05, 0x00, 0x00,
  0x94, 0x04, 0x00, 0x00, 0x78, 0x03, 0x00, 0x00, 0xbc, 0x02, 0x00, 0x00,
  0x30, 0x02, 0x00, 0x00, 0x50, 0x01, 0x00, 0x00, 0xa8, 0x00, 0x00, 0x00,
  0x10, 0x00, 0x00, 0x00, 0x04, 0x00, 0x00, 0x00, 0x6d, 0x61, 0x69, 0x6e,
  0x00, 0x00, 0x00, 0x00, 0x7a, 0xff, 0xff, 0xff, 0x00, 0x00, 0x00, 0x09,
  0x04, 0x00, 0x00, 0x00, 0x1c, 0x00, 0x00, 0x00, 0x10, 0x00, 0x00, 0x00,
  0x04, 0x00, 0x00, 0x00, 0xb2, 0xcf, 0xff, 0xff, 0x00, 0x00, 0x80, 0x3f,
  0x01, 0x00, 0x00, 0x00, 0x11, 0x00, 0x00, 0x00, 0x01, 0x00, 0x00, 0x00,
  0x10, 0x00, 0x00, 0x00, 0xa0, 0xfa, 0xff, 0xff, 0x19, 0x00, 0x00, 0x00,
  0x00, 0x00, 0x00, 0x19, 0x01, 0x00, 0x00, 0x00, 0x40, 0xcf, 0xff, 0xff,
  0x14, 0x00, 0x00, 0x00, 0x12, 0x00, 0x00, 0x00, 0x18, 0x00, 0x00, 0x00,
  0x30, 0x00, 0x00, 0x00, 0x20, 0x00, 0x00, 0x00, 0x02, 0x00, 0x00, 0x00,
  0x01, 0x00, 0x00, 0x00, 0x04, 0x00, 0x00, 0x00, 0x08, 0x00, 0x00, 0x00,
  0x49, 0x64, 0x65, 0x6e, 0x74, 0x69, 0x74, 0x79, 0x00, 0x00, 0x00, 0x00,
  0x02, 0x00, 0x00, 0x00, 0xff, 0xff, 0xff, 0xff, 0x04, 0x00, 0x00, 0x00,
  0x24, 0xd0, 0xff, 0xff, 0x00, 0x00, 0x0e, 0x00, 0x18, 0x00, 0x08, 0x00,
  0x0c, 0x00, 0x10, 0x00, 0x07, 0x00, 0x14, 0x00, 0x0e, 0x00, 0x00, 0x00,
  0x00, 0x00, 0x00, 0x08, 0x03, 0x00, 0x00, 0x00, 0x18, 0x00, 0x00, 0x00,
  0x0c, 0x00, 0x00, 0x00, 0x04, 0x00, 0x00, 0x00, 0x40, 0xcf, 0xff, 0xff,
  0x01, 0x00, 0x00, 0x00, 0x10, 0x00, 0x00, 0x00, 0x03, 0x00, 0x00, 0x00,
  0x0f, 0x00, 0x00, 0x00, 0x07, 0x00, 0x00, 0x00, 0x04, 0x00, 0x00, 0x00,
  0xc8, 0xcf, 0xff, 0xff, 0x14, 0x00, 0x00, 0x00, 0x11, 0x00, 0x00, 0x00,
  0x18, 0x00, 0x00, 0x00, 0x5c, 0x00, 0x00, 0x00, 0x4c, 0x00, 0x00, 0x00,
  0x02, 0x00, 0x00, 0x00, 0x01, 0x00, 0x00, 0x00, 0x04, 0x00, 0x00, 0x00,
  0x34, 0x00, 0x00, 0x00, 0x73, 0x65, 0x71, 0x75, 0x65, 0x6e, 0x74, 0x69,
  0x61, 0x6c, 0x2f, 0x64, 0x65, 0x6e, 0x73, 0x65, 0x5f, 0x31, 0x2f, 0x4d,
  0x61, 0x74, 0x4d, 0x75, 0x6c, 0x3b, 0x73, 0x65, 0x71, 0x75, 0x65, 0x6e,
  0x74, 0x69, 0x61, 0x6c, 0x2f, 0x64, 0x65, 0x6e, 0x73, 0x65, 0x5f, 0x31,
  0x2f, 0x42, 0x69, 0x61, 0x73, 0x41, 0x64, 0x64, 0x00, 0x00, 0x00, 0x00,
  0x02, 0x00, 0x00, 0x00, 0xff, 0xff, 0xff, 0xff, 0x04, 0x00, 0x00, 0x00,
  0xc8, 0xcf, 0xff, 0xff, 0xda, 0xfc, 0xff, 0xff, 0x00, 0x00, 0x00, 0x08,
  0x03, 0x00, 0x00, 0x00, 0x24, 0x00, 0x00, 0x00, 0x18, 0x00, 0x00, 0x00,
  0x0c, 0x00, 0x00, 0x00, 0x00, 0x00, 0x06, 0x00, 0x08, 0x00, 0x07, 0x00,
  0x06, 0x00, 0x00, 0x00, 0x00, 0x00, 0x00, 0x01, 0x01, 0x00, 0x00, 0x00,
  0x0f, 0x00, 0x00, 0x00, 0x03, 0x00, 0x00, 0x00, 0x0e, 0x00, 0x00, 0x00,
  0x06, 0x00, 0x00, 0x00, 0x03, 0x00, 0x00, 0x00, 0xe8, 0xfb, 0xff, 0xff,
  0x09, 0x00, 0x00, 0x00, 0x00, 0x00, 0x00, 0x09, 0x01, 0x00, 0x00, 0x00,
  0x88, 0xd0, 0xff, 0xff, 0x14, 0x00, 0x00, 0x00, 0x10, 0x00, 0x00, 0x00,
  0x18, 0x00, 0x00, 0x00, 0x6c, 0x00, 0x00, 0x00, 0x5c, 0x00, 0x00, 0x00,
  0x02, 0x00, 0x00, 0x00, 0x01, 0x00, 0x00, 0x00, 0x10, 0x00, 0x00, 0x00,
  0x46, 0x00, 0x00, 0x00, 0x73, 0x65, 0x71, 0x75, 0x65, 0x6e, 0x74, 0x69,
  0x61, 0x6c, 0x2f, 0x64, 0x65, 0x6e, 0x73, 0x65, 0x2f, 0x4d, 0x61, 0x74,
  0x4d, 0x75, 0x6c, 0x3b, 0x73, 0x65, 0x71, 0x75, 0x65, 0x6e, 0x74, 0x69,
  0x61, 0x6c, 0x2f, 0x64, 0x65, 0x6e, 0x73, 0x65, 0x2f, 0x52, 0x65, 0x6c,
  0x75, 0x3b, 0x73, 0x65, 0x71, 0x75, 0x65, 0x6e, 0x74, 0x69, 0x61, 0x6c,
  0x2f, 0x64, 0x65, 0x6e, 0x73, 0x65, 0x2f, 0x42, 0x69, 0x61, 0x73, 0x41,
  0x64, 0x64, 0x00, 0x00, 0x02, 0x00, 0x00, 0x00, 0xff, 0xff, 0xff, 0xff,
  0x10, 0x00, 0x00, 0x00, 0xa8, 0xd1, 0xff, 0xff, 0x00, 0x00, 0x0a, 0x00,
  0x10, 0x00, 0x04, 0x00, 0x08, 0x00, 0x0c, 0x00, 0x0a, 0x00, 0x00, 0x00,
  0x02, 0x00, 0x00, 0x00, 0x10, 0x00, 0x00, 0x00, 0x04, 0x00, 0x00, 0x00,
  0x01, 0x00, 0x00, 0x00, 0x0e, 0x00, 0x00, 0x00, 0x02, 0x00, 0x00, 0x00,
  0x0d, 0x00, 0x00, 0x00, 0x05, 0x00, 0x00, 0x00, 0xa8, 0xfc, 0xff, 0xff,
  0x16, 0x00, 0x00, 0x00, 0x00, 0x00, 0x00, 0x16, 0x01, 0x00, 0x00, 0x00,
  0x48, 0xd1, 0xff, 0xff, 0x14, 0x00, 0x00, 0x00, 0x0f, 0x00, 0x00, 0x00,
  0x18, 0x00, 0x00, 0x00, 0x40, 0x00, 0x00, 0x00, 0x30, 0x00, 0x00, 0x00,
  0x02, 0x00, 0x00, 0x00, 0x01, 0x00, 0x00, 0x00, 0x70, 0x00, 0x00, 0x00,
  0x1a, 0x00, 0x00, 0x00, 0x73, 0x65, 0x71, 0x75, 0x65, 0x6e, 0x74, 0x69,
  0x61, 0x6c, 0x2f, 0x66, 0x6c, 0x61, 0x74, 0x74, 0x65, 0x6e, 0x2f, 0x52,
  0x65, 0x73, 0x68, 0x61, 0x70, 0x65, 0x00, 0x00, 0x02, 0x00, 0x00, 0x00,
  0xff, 0xff, 0xff, 0xff, 0x70, 0x00, 0x00, 0x00, 0x2c, 0xd1, 0xff, 0xff,
  0x3e, 0xfe, 0xff, 0xff, 0x00, 0x00, 0x00, 0x05, 0x01, 0x00, 0x00, 0x00,
  0x38, 0x00, 0x00, 0x00, 0x2c, 0x00, 0x00, 0x00, 0x14, 0x00, 0x00, 0x00,
  0x00, 0x00, 0x0e, 0x00, 0x14, 0x00, 0x00, 0x00, 0x10, 0x00, 0x0c, 0x00,
  0x08, 0x00, 0x04, 0x00, 0x0e, 0x00, 0x00, 0x00, 0x03, 0x00, 0x00, 0x00,
  0x01, 0x00, 0x00, 0x00, 0x03, 0x00, 0x00, 0x00, 0x01, 0x00, 0x00, 0x00,
  0x01, 0x00, 0x00, 0x00, 0x0d, 0x00, 0x00, 0x00, 0x01, 0x00, 0x00, 0x00,
  0x0c, 0x00, 0x00, 0x00, 0xe8, 0xd1, 0xff, 0xff, 0x14, 0x00, 0x00, 0x00,
  0x0e, 0x00, 0x00, 0x00, 0x20, 0x00, 0x00, 0x00, 0x58, 0x00, 0x00, 0x00,
  0x40, 0x00, 0x00, 0x00, 0x04, 0x00, 0x00, 0x00, 0x01, 0x00, 0x00, 0x00,
  0x07, 0x00, 0x00, 0x00, 0x01, 0x00, 0x00, 0x00, 0x10, 0x00, 0x00, 0x00,
  0x22, 0x00, 0x00, 0x00, 0x73, 0x65, 0x71, 0x75, 0x65, 0x6e, 0x74, 0x69,
  0x61, 0x6c, 0x2f, 0x6d, 0x61, 0x78, 0x5f, 0x70, 0x6f, 0x6f, 0x6c, 0x69,
  0x6e, 0x67, 0x32, 0x64, 0x5f, 0x31, 0x2f, 0x4d, 0x61, 0x78, 0x50, 0x6f,
  0x6f, 0x6c, 0x00, 0x00, 0x04, 0x00, 0x00, 0x00, 0xff, 0xff, 0xff, 0xff,
  0x07, 0x00, 0x00, 0x00, 0x01, 0x00, 0x00, 0x00, 0x10, 0x00, 0x00, 0x00,
  0xe4, 0xd1, 0xff, 0xff, 0x1a, 0xfe, 0xff, 0xff, 0x00, 0x00, 0x00, 0x01,
  0x24, 0x00, 0x00, 0x00, 0x18, 0x00, 0x00, 0x00, 0x04, 0x00, 0x00, 0x00,
  0x0c, 0xfe, 0xff, 0xff, 0x01, 0x00, 0x00, 0x00, 0x01, 0x00, 0x00, 0x00,
  0x00, 0x00, 0x00, 0x01, 0x01, 0x00, 0x00, 0x00, 0x0c, 0x00, 0x00, 0x00,
  0x03, 0x00, 0x00, 0x00, 0x0b, 0x00, 0x00, 0x00, 0x09, 0x00, 0x00, 0x00,
  0x02, 0x00, 0x00, 0x00, 0x90, 0xd2, 0xff, 0xff, 0x14, 0x00, 0x00, 0x00,
  0x0d, 0x00, 0x00, 0x00, 0x20, 0x00, 0x00, 0x00, 0xb8, 0x00, 0x00, 0x00,
  0xa0, 0x00, 0x00, 0x00, 0x04, 0x00, 0x00, 0x00, 0x01, 0x00, 0x00, 0x00,
  0x15, 0x00, 0x00, 0x00, 0x01, 0x00, 0x00, 0x00, 0x10, 0x00, 0x00, 0x00,
  0x83, 0x00, 0x00, 0x00, 0x73, 0x65, 0x71, 0x75, 0x65, 0x6e, 0x74, 0x69,
  0x61, 0x6c, 0x2f, 0x63, 0x6f, 0x6e, 0x76, 0x32, 0x64, 0x5f, 0x31, 0x2f,
  0x52, 0x65, 0x6c, 0x75, 0x3b, 0x73, 0x65, 0x71, 0x75, 0x65, 0x6e, 0x74,
  0x69, 0x61, 0x6c, 0x2f, 0x63, 0x6f, 0x6e, 0x76, 0x32, 0x64, 0x5f, 0x31,
  0x2f, 0x42, 0x69, 0x61, 0x73, 0x41, 0x64, 0x64, 0x3b, 0x73, 0x65, 0x71,
  0x75, 0x65, 0x6e, 0x74, 0x69, 0x61, 0x6c, 0x2f, 0x63, 0x6f, 0x6e, 0x76,
  0x32, 0x64, 0x5f, 0x31, 0x2f, 0x43, 0x6f, 0x6e, 0x76, 0x32, 0x44, 0x3b,
  0x73, 0x65, 0x71, 0x75, 0x65, 0x6e, 0x74, 0x69, 0x61, 0x6c, 0x2f, 0x63,
  0x6f, 0x6e, 0x76, 0x32, 0x64, 0x5f, 0x31, 0x2f, 0x42, 0x69, 0x61, 0x73,
  0x41, 0x64, 0x64, 0x2f, 0x52, 0x65, 0x61, 0x64, 0x56, 0x61, 0x72, 0x69,
  0x61, 0x62, 0x6c, 0x65, 0x4f, 0x70, 0x2f, 0x72, 0x65, 0x73, 0x6f, 0x75,
  0x72, 0x63, 0x65, 0x00, 0x04, 0x00, 0x00, 0x00, 0xff, 0xff, 0xff, 0xff,
  0x15, 0x00, 0x00, 0x00, 0x01, 0x00, 0x00, 0x00, 0x10, 0x00, 0x00, 0x00,
  0xfc, 0xd3, 0xff, 0xff, 0x00, 0x00, 0x0e, 0x00, 0x1a, 0x00, 0x08, 0x00,
  0x0c, 0x00, 0x10, 0x00, 0x07, 0x00, 0x14, 0x00, 0x0e, 0x00, 0x00, 0x00,
  0x00, 0x00, 0x00, 0x05, 0x01, 0x00, 0x00, 0x00, 0x3c, 0x00, 0x00, 0x00,
  0x30, 0x00, 0x00, 0x00, 0x14, 0x00, 0x00, 0x00, 0x00, 0x00, 0x0e, 0x00,
  0x18, 0x00, 0x17, 0x00, 0x10, 0x00, 0x0c, 0x00, 0x08, 0x00, 0x04, 0x00,
  0x0e, 0x00, 0x00, 0x00, 0x03, 0x00, 0x00, 0x00, 0x03, 0x00, 0x00, 0x00,
  0x03, 0x00, 0x00, 0x00, 0x03, 0x00, 0x00, 0x00, 0x00, 0x00, 0x00, 0x01,
  0x01, 0x00, 0x00, 0x00, 0x0b, 0x00, 0x00, 0x00, 0x01, 0x00, 0x00, 0x00,
  0x0a, 0x00, 0x00, 0x00, 0x2c, 0xff, 0xff, 0xff, 0x11, 0x00, 0x00, 0x00,
  0x00, 0x00, 0x00, 0x11, 0x01, 0x00, 0x00, 0x00, 0xcc, 0xd3, 0xff, 0xff,
  0x14, 0x00, 0x00, 0x00, 0x0c, 0x00, 0x00, 0x00, 0x20, 0x00, 0x00, 0x00,
  0x58, 0x00, 0x00, 0x00, 0x40, 0x00, 0x00, 0x00, 0x04, 0x00, 0x00, 0x00,
  0x01, 0x00, 0x00, 0x00, 0x15, 0x00, 0x00, 0x00, 0x01, 0x00, 0x00, 0x00,
  0x08, 0x00, 0x00, 0x00, 0x20, 0x00, 0x00, 0x00, 0x73, 0x65, 0x71, 0x75,
  0x65, 0x6e, 0x74, 0x69, 0x61, 0x6c, 0x2f, 0x6d, 0x61, 0x78, 0x5f, 0x70,
  0x6f, 0x6f, 0x6c, 0x69, 0x6e, 0x67, 0x32, 0x64, 0x2f, 0x4d, 0x61, 0x78,
  0x50, 0x6f, 0x6f, 0x6c, 0x00, 0x00, 0x00, 0x00, 0x04, 0x00, 0x00, 0x00,
  0xff, 0xff, 0xff, 0xff, 0x15, 0x00, 0x00, 0x00, 0x01, 0x00, 0x00, 0x00,
  0x08, 0x00, 0x00, 0x00, 0xd8, 0xd4, 0xff, 0xff, 0x00, 0x00, 0x0e, 0x00,
  0x14, 0x00, 0x00, 0x00, 0x08, 0x00, 0x0c, 0x00, 0x07, 0x00, 0x10, 0x00,
  0x0e, 0x00, 0x00, 0x00, 0x00, 0x00, 0x00, 0x01, 0x30, 0x00, 0x00, 0x00,
  0x24, 0x00, 0x00, 0x00, 0x10, 0x00, 0x00, 0x00, 0x0c, 0x00, 0x10, 0x00,
  0x00, 0x00, 0x04, 0x00, 0x08, 0x00, 0x0f, 0x00, 0x0c, 0x00, 0x00, 0x00,
  0x01, 0x00, 0x00, 0x00, 0x01, 0x00, 0x00, 0x00, 0x00, 0x00, 0x00, 0x01,
  0x01, 0x00, 0x00, 0x00, 0x0a, 0x00, 0x00, 0x00, 0x03, 0x00, 0x00, 0x00,
  0x00, 0x00, 0x00, 0x00, 0x08, 0x00, 0x00, 0x00, 0x01, 0x00, 0x00, 0x00,
  0x0c, 0x00, 0x10, 0x00, 0x0b, 0x00, 0x00, 0x00, 0x0c, 0x00, 0x04, 0x00,
  0x0c, 0x00, 0x00, 0x00, 0x03, 0x00, 0x00, 0x00, 0x00, 0x00, 0x00, 0x03,
  0x01, 0x00, 0x00, 0x00, 0xac, 0xd4, 0xff, 0xff, 0x14, 0x00, 0x00, 0x00,
  0x0b, 0x00, 0x00, 0x00, 0x20, 0x00, 0x00, 0x00, 0xb0, 0x00, 0x00, 0x00,
  0x98, 0x00, 0x00, 0x00, 0x04, 0x00, 0x00, 0x00, 0x01, 0x00, 0x00, 0x00,
  0x40, 0x00, 0x00, 0x00, 0x03, 0x00, 0x00, 0x00, 0x08, 0x00, 0x00, 0x00,
  0x7b, 0x00, 0x00, 0x00, 0x73, 0x65, 0x71, 0x75, 0x65, 0x6e, 0x74, 0x69,
  0x61, 0x6c, 0x2f, 0x63, 0x6f, 0x6e, 0x76, 0x32, 0x64, 0x2f, 0x52, 0x65,
  0x6c, 0x75, 0x3b, 0x73, 0x65, 0x71, 0x75, 0x65, 0x6e, 0x74, 0x69, 0x61,
  0x6c, 0x2f, 0x63, 0x6f, 0x6e, 0x76, 0x32, 0x64, 0x2f, 0x42, 0x69, 0x61,
  0x73, 0x41, 0x64, 0x64, 0x3b, 0x73, 0x65, 0x71, 0x75, 0x65, 0x6e, 0x74,
  0x69, 0x61, 0x6c, 0x2f, 0x63, 0x6f, 0x6e, 0x76, 0x32, 0x64, 0x2f, 0x43,
  0x6f, 0x6e, 0x76, 0x32, 0x44, 0x3b, 0x73, 0x65, 0x71, 0x75, 0x65, 0x6e,
  0x74, 0x69, 0x61, 0x6c, 0x2f, 0x63, 0x6f, 0x6e, 0x76, 0x32, 0x64, 0x2f,
  0x42, 0x69, 0x61, 0x73, 0x41, 0x64, 0x64, 0x2f, 0x52, 0x65, 0x61, 0x64,
  0x56, 0x61, 0x72, 0x69, 0x61, 0x62, 0x6c, 0x65, 0x4f, 0x70, 0x2f, 0x72,
  0x65, 0x73, 0x6f, 0x75, 0x72, 0x63, 0x65, 0x00, 0x04, 0x00, 0x00, 0x00,
  0xff, 0xff, 0xff, 0xff, 0x40, 0x00, 0x00, 0x00, 0x03, 0x00, 0x00, 0x00,
  0x08, 0x00, 0x00, 0x00, 0x00, 0xd5, 0xff, 0xff, 0x0a, 0xd6, 0xff, 0xff,
  0x04, 0x00, 0x00, 0x00, 0x00, 0x08, 0x00, 0x00, 0x15, 0xde, 0xe1, 0xbe,
  0x40, 0xd8, 0x25, 0xbd, 0x18, 0x94, 0xba, 0x3e, 0x98, 0x0a, 0xc5, 0x3e,
  0x46, 0x05, 0xb3, 0x3d, 0x54, 0x5c, 0xb6, 0xbe, 0x36, 0xd0, 0x13, 0x3e,
  0xe0, 0xd5, 0x57, 0x3e, 0x66, 0x93, 0xfe, 0xbe, 0x5a, 0x62, 0x3e, 0x3e,
  0x95, 0xa0, 0xa0, 0xbd, 0xd7, 0x0a, 0x41, 0x3e, 0x2c, 0x1e, 0xe6, 0xbd,
  0x47, 0x1f, 0x78, 0xbe, 0x08, 0xa7, 0x3f, 0xbe, 0xe4, 0x62, 0xba, 0x3d,
  0x85, 0x3c, 0xd1, 0xbe, 0xb1, 0x90, 0x3c, 0x3c, 0xde, 0xc0, 0xce, 0x3d,
  0x05, 0xf1, 0x36, 0x3e, 0xe3, 0xb5, 0x86, 0xbd, 0x7d, 0x0b, 0x3f, 0xbe,
  0x03, 0xa6, 0x26, 0x3e, 0x9c, 0x8f, 0xa5, 0x3e, 0xc7, 0x1e, 0xb6, 0xbe,
  0xe8, 0x95, 0x90, 0xbc, 0x6b, 0x01, 0xfe, 0x3c, 0x48, 0x25, 0xdc, 0x3b,
  0x25, 0xad, 0x40, 0xbe, 0x85, 0xa9, 0x9c, 0xbd, 0xd8, 0xa4, 0xc1, 0x3e,
  0x15, 0x20, 0x9b, 0x3e, 0xfc, 0x2c, 0x18, 0x3d, 0x33, 0xd0, 0x1f, 0xbe,
  0x3c, 0xca, 0xec, 0x3d, 0xd4, 0x81, 0x77, 0xbd, 0xd6, 0xcb, 0x3c, 0xbe,
  0xd8, 0x2c, 0xfc, 0xbd, 0x24, 0xaa, 0x93, 0x3d, 0x54, 0xbd, 0x77, 0xbb,
  0x7f, 0xc4, 0x2f, 0xbd, 0x08, 0x8a, 0x13, 0xbe, 0xb2, 0xf5, 0xd4, 0x3d,
  0x28, 0x90, 0x3a, 0x3e, 0x33, 0x37, 0x2e, 0xbe, 0xda, 0xdd, 0x35, 0xbe,
  0x85, 0x72, 0x9a, 0x3c, 0xc2, 0x45, 0xea, 0x3e, 0xb6, 0x52, 0x1a, 0x3d,
  0xab, 0x2e, 0xba, 0xbd, 0xdb, 0xae, 0x0a, 0x3e, 0xe7, 0x2b, 0x94, 0xbd,
  0xe6, 0xf5, 0x0c, 0xbd, 0x02, 0x3c, 0x6f, 0xbe, 0xdf, 0x3e, 0x24, 0x3e,
  0x9a, 0xc3, 0x1a, 0x3e, 0x8e, 0x44, 0x8b, 0x3d, 0x4d, 0xbc, 0xad, 0xbd,
  0x1f, 0x9c, 0x90, 0x3e, 0x86, 0xec, 0xc2, 0x3d, 0xc5, 0xac, 0xa9, 0xbd,
  0x36, 0xc8, 0x30, 0xbe, 0x28, 0xb9, 0x48, 0x3e, 0x1b, 0x75, 0x0a, 0x3e,
  0x80, 0x0d, 0x37, 0xbd, 0xb0, 0xf5, 0x18, 0x3f, 0x97, 0x00, 0x37, 0x3e,
  0xfe, 0x56, 0x03, 0x3d, 0x92, 0xeb, 0x3b, 0xbd, 0x6c, 0xff, 0x1d, 0xbc,
  0x44, 0x67, 0x4f, 0xbd, 0x18, 0xb4, 0xa5, 0x3c, 0x0f, 0x4c, 0x79, 0xbd,
  0xed, 0xd6, 0x2e, 0xbe, 0xb4, 0xe5, 0x1d, 0xbe, 0x2c, 0xcb, 0xa1, 0xba,
  0xef, 0x28, 0x9a, 0xbe, 0xf4, 0x7f, 0x04, 0x3d, 0x8f, 0xf3, 0x6a, 0xbd,
  0xae, 0xa3, 0x75, 0xbd, 0x90, 0xa5, 0xa8, 0x3d, 0x0a, 0xc9, 0x2d, 0xbe,
  0x2d, 0x07, 0x13, 0x3e, 0x42, 0x41, 0x80, 0x3e, 0x6c, 0x2b, 0x06, 0xbe,
  0xa1, 0x67, 0x8e, 0x3c, 0xc2, 0xad, 0x47, 0xbc, 0x3f, 0x98, 0x8e, 0xbd,
  0x9b, 0x7f, 0x5b, 0xbd, 0x3e, 0x10, 0xc2, 0xbd, 0xa6, 0x93, 0xcd, 0xbd,
  0x6e, 0x5f, 0x86, 0xbd, 0x55, 0xca, 0x05, 0xbe, 0xed, 0xaf, 0x08, 0xbd,
  0x97, 0xc2, 0x53, 0x3d, 0x51, 0xa4, 0x06, 0xbe, 0x3f, 0x1f, 0x56, 0x3e,
  0x36, 0x7c, 0x9f, 0xbe, 0xe0, 0xa4, 0x6b, 0xbd, 0x37, 0xe6, 0x9e, 0x3d,
  0xad, 0x45, 0xea, 0xbe, 0xbd, 0xad, 0x30, 0xbd, 0x5f, 0xd5, 0x0b, 0xbe,
  0x77, 0x76, 0x60, 0xbd, 0x23, 0x5c, 0xa3, 0xbe, 0x4f, 0xd4, 0x14, 0xbd,
  0xd3, 0xec, 0xbd, 0x3d, 0x6f, 0x9f, 0xd3, 0x3d, 0x9c, 0x40, 0x67, 0xbe,
  0x25, 0xf9, 0x1a, 0x3d, 0xd4, 0x47, 0x76, 0xbe, 0xc6, 0x32, 0x87, 0xbd,
  0x90, 0x03, 0x51, 0xbd, 0xf4, 0x83, 0x90, 0xbe, 0xe9, 0xa4, 0xfd, 0x3c,
  0x3c, 0x79, 0x44, 0xbe, 0x8e, 0xd1, 0x83, 0xbe, 0x4c, 0x52, 0x10, 0xbe,
  0xb5, 0xac, 0x92, 0xbd, 0x4f, 0x28, 0x47, 0xbe, 0xd4, 0xb1, 0xb3, 0x3d,
  0x1d, 0x61, 0x20, 0xbd, 0xb3, 0xb0, 0x85, 0x3d, 0x19, 0xe2, 0xbe, 0x3d,
  0xb5, 0x79, 0x82, 0xbe, 0x07, 0x6e, 0xe2, 0xbd, 0x07, 0x1c, 0x43, 0xbe,
  0x12, 0x1e, 0x15, 0x3d, 0x37, 0xa5, 0xe3, 0xbd, 0xb7, 0xee, 0x27, 0xbe,
  0x61, 0xdb, 0x86, 0xbe, 0x80, 0xa1, 0xfc, 0xbd, 0x00, 0x18, 0x79, 0xbd,
  0xe4, 0xc7, 0x32, 0xbe, 0x56, 0x36, 0x1d, 0xbe, 0xd6, 0xb1, 0x3e, 0xbe,
  0x2d, 0xcd, 0x0a, 0x3d, 0x4c, 0x21, 0x21, 0xbe, 0xa5, 0xf2, 0x01, 0xbe,
  0x5a, 0x59, 0xff, 0xbc, 0xe4, 0x68, 0xa8, 0xbd, 0xa6, 0x6d, 0xc0, 0xbe,
  0xa4, 0xc2, 0x09, 0xbe, 0x46, 0x0b, 0x44, 0x3e, 0xcd, 0x0f, 0xb5, 0xbb,
  0x17, 0x3d, 0x0e, 0xbe, 0xcd, 0x96, 0x17, 0x3e, 0xee, 0xfe, 0x52, 0xbd,
  0x64, 0x08, 0x20, 0x3d, 0x8e, 0xd8, 0xaa, 0xbe, 0xff, 0x45, 0x38, 0x3d,
  0xb1, 0x6b, 0xc2, 0xbd, 0xde, 0xc7, 0x3d, 0x3b, 0x69, 0x25, 0xe2, 0xbc,
  0x9a, 0x3b, 0x07, 0x3f, 0xcb, 0x69, 0x52, 0x3d, 0x9d, 0x28, 0xa7, 0x3e,
  0xca, 0xb6, 0x23, 0xbf, 0xe6, 0x1a, 0xe9, 0x3e, 0xf2, 0xab, 0x63, 0x3e,
  0x4f, 0xc9, 0x96, 0xbe, 0x65, 0xdd, 0xc7, 0x3d, 0x3b, 0x5d, 0x7e, 0xbc,
  0x83, 0xec, 0xce, 0x3e, 0x86, 0x6f, 0x03, 0x3f, 0x20, 0xa0, 0x3f, 0xbe,
  0x3a, 0x56, 0xa1, 0x3d, 0xb2, 0xbd, 0x77, 0x3e, 0x30, 0x8d, 0x8b, 0xbe,
  0xb4, 0xe9, 0xac, 0x3d, 0x9a, 0xa8, 0xb6, 0x3d, 0xa3, 0x45, 0x21, 0xbe,
  0x28, 0xd7, 0xa6, 0x3c, 0x0f, 0x1f, 0x79, 0xbd, 0x48, 0x34, 0x1b, 0xbe,
  0x20, 0x34, 0x55, 0x3d, 0xa9, 0xba, 0x87, 0xbe, 0xd6, 0xa5, 0x92, 0x3d,
  0x2b, 0x98, 0xf1, 0xbd, 0xe5, 0x3c, 0xad, 0xbd, 0x02, 0x0b, 0x9f, 0xbd,
  0x8a, 0x22, 0x9f, 0x3a, 0x4d, 0xa8, 0xe2, 0x3c, 0xc7, 0xb4, 0x8d, 0xbc,
  0xcd, 0x26, 0x70, 0xbe, 0x24, 0x60, 0x2b, 0xbd, 0x0d, 0x9e, 0x7d, 0x3c,
  0xa4, 0x6b, 0x68, 0xbe, 0x79, 0x52, 0x06, 0xbe, 0x9d, 0x15, 0x55, 0x3d,
  0xcc, 0x12, 0x6f, 0x3e, 0x5e, 0x13, 0x74, 0xbe, 0xd3, 0x88, 0xa8, 0x3d,
  0x2f, 0x5a, 0x7a, 0x3c, 0x8f, 0x14, 0xf8, 0xbd, 0x01, 0x5d, 0xb7, 0x3d,
  0xc6, 0x4c, 0xd3, 0xbd, 0xc7, 0x93, 0x02, 0xbf, 0xcd, 0xef, 0x87, 0xbe,
  0x14, 0x8c, 0x45, 0xbd, 0x5b, 0x5c, 0x9c, 0x3e, 0x9f, 0x77, 0x3d, 0x3e,
  0x7b, 0x65, 0x1c, 0xbc, 0x5c, 0xb6, 0xa3, 0x3d, 0xa1, 0x96, 0xcb, 0xbd,
  0x2a, 0x02, 0x11, 0xbf, 0xe8, 0xe6, 0x8d, 0xbd, 0x45, 0x1e, 0x00, 0xbd,
  0x16, 0x60, 0x69, 0xbd, 0x3a, 0x91, 0x3b, 0xbe, 0xda, 0xec, 0x6d, 0x3e,
  0x7b, 0xbe, 0x4b, 0x3c, 0x1e, 0x99, 0x8e, 0x3d, 0x9c, 0x12, 0x38, 0xbf,
  0xeb, 0xd1, 0x10, 0xbe, 0x8d, 0x68, 0x91, 0x3e, 0x64, 0x49, 0xc6, 0x3c,
  0xb5, 0xbe, 0x45, 0x3c, 0x6d, 0x89, 0x64, 0x3e, 0x0c, 0x42, 0x6d, 0xbc,
  0x46, 0x2c, 0x85, 0x3d, 0xc6, 0xb4, 0x3c, 0xbf, 0x7b, 0x13, 0x45, 0xbd,
  0xf4, 0xfe, 0x4e, 0xbc, 0xc3, 0x1a, 0xe2, 0xbd, 0x29, 0xce, 0x90, 0xbe,
  0x6b, 0xc3, 0x8d, 0x3e, 0x90, 0x97, 0xe7, 0xbe, 0xb7, 0x8c, 0x04, 0xbe,
  0x9a, 0x50, 0xd3, 0xbc, 0x00, 0x3c, 0x51, 0xbe, 0x60, 0x00, 0x77, 0xbe,
  0x37, 0xec, 0x8f, 0xbd, 0x00, 0x33, 0x51, 0xbe, 0x78, 0x15, 0x03, 0x3d,
  0xc8, 0x3c, 0xbd, 0xbe, 0x25, 0xd0, 0xb0, 0xbd, 0xa1, 0xec, 0x26, 0xbd,
  0x0c, 0xc2, 0x47, 0xbe, 0x97, 0x20, 0x64, 0xbe, 0xfa, 0xf5, 0xd4, 0xbc,
  0x9e, 0x19, 0x8b, 0xbd, 0xb3, 0x73, 0x36, 0xbe, 0x91, 0xf9, 0x0d, 0xbe,
  0xa8, 0x97, 0x94, 0x3b, 0xff, 0x1d, 0x0c, 0xbd, 0x2b, 0x26, 0x7d, 0xbd,
  0x63, 0x98, 0x59, 0x3d, 0x02, 0xbd, 0xb1, 0x3d, 0x07, 0xff, 0xd4, 0x3e,
  0xe5, 0x94, 0x23, 0x3e, 0x87, 0x23, 0xcc, 0x3e, 0x04, 0x02, 0x31, 0x3e,
  0x49, 0xf1, 0x65, 0x3d, 0xb5, 0xd2, 0xb4, 0x3e, 0xd9, 0x58, 0x9c, 0x3e,
  0xee, 0xfa, 0x85, 0xbd, 0x49, 0xd1, 0x83, 0xbd, 0x1b, 0x69, 0xce, 0x3c,
  0x78, 0xc6, 0x27, 0xbd, 0x34, 0x2f, 0xfe, 0xbc, 0x2f, 0xee, 0x8b, 0xbc,
  0x21, 0xb1, 0x2b, 0xbd, 0x8b, 0x58, 0xbf, 0x3e, 0xa0, 0x24, 0x66, 0xbd,
  0x57, 0x88, 0x02, 0x3e, 0xc7, 0x0c, 0x0f, 0x3e, 0x84, 0xe5, 0xca, 0x3d,
  0x62, 0xcf, 0xaa, 0x3d, 0xbf, 0x6e, 0x78, 0xbb, 0xe5, 0xd1, 0xdd, 0x3e,
  0x7c, 0xab, 0x11, 0xbe, 0xaf, 0xe6, 0xcc, 0xbc, 0x08, 0x4c, 0xab, 0xbd,
  0x79, 0x0b, 0xcc, 0xbc, 0xb8, 0x4f, 0xc2, 0xbc, 0x3f, 0x70, 0x22, 0x3e,
  0x07, 0xa9, 0x17, 0x3e, 0xff, 0x01, 0xa1, 0xbe, 0x43, 0x1a, 0x8f, 0xbc,
  0x74, 0x19, 0x01, 0x3c, 0x51, 0x87, 0x00, 0xbe, 0x8f, 0x1e, 0xd5, 0xbd,
  0x22, 0x03, 0xe0, 0xbd, 0xa2, 0xe3, 0xb4, 0x3c, 0xfd, 0x4d, 0xc0, 0x3d,
  0x4b, 0x79, 0x91, 0xbc, 0x67, 0x30, 0xb6, 0xbc, 0x6c, 0x5a, 0x3c, 0xbd,
  0x68, 0x0c, 0xb9, 0xbe, 0x3b, 0x94, 0xf0, 0xbd, 0x7a, 0x2e, 0x32, 0xbe,
  0xbe, 0x76, 0xb0, 0x3d, 0x56, 0x75, 0x49, 0x3d, 0xfa, 0xd5, 0xde, 0x3d,
  0x8d, 0xc7, 0xd6, 0xbe, 0x15, 0xdb, 0x2c, 0xbd, 0xc2, 0x3f, 0xb0, 0xbe,
  0x7a, 0x08, 0x36, 0x3e, 0x77, 0xeb, 0x98, 0x3e, 0x86, 0x91, 0x43, 0xbd,
  0x0c, 0xa3, 0xbc, 0xbd, 0x26, 0x66, 0x8d, 0x3e, 0xe9, 0x5e, 0x45, 0xbf,
  0x37, 0x26, 0x78, 0xbc, 0x9f, 0xb2, 0x02, 0x3a, 0xb8, 0x2f, 0xbf, 0x3e,
  0x20, 0x7c, 0x4c, 0x3e, 0x0f, 0xc6, 0xaa, 0xbd, 0x54, 0x13, 0x13, 0xbe,
  0x0a, 0x31, 0x58, 0x3e, 0x87, 0x33, 0x3e, 0x3e, 0xf8, 0x0d, 0x10, 0x3d,
  0xfd, 0xe5, 0x58, 0x3e, 0xab, 0x54, 0x34, 0xbe, 0x38, 0x2d, 0xb8, 0xbd,
  0x26, 0x19, 0x5d, 0xbd, 0xce, 0x08, 0x8e, 0x3c, 0x52, 0x65, 0x1f, 0xbf,
  0xe8, 0x50, 0x41, 0xbd, 0x85, 0x4d, 0x86, 0x3e, 0xae, 0x98, 0xd3, 0x3d,
  0x8f, 0xaf, 0xc4, 0x3e, 0x4d, 0xba, 0xb6, 0x3d, 0xdf, 0x83, 0xb1, 0xbe,
  0x51, 0x88, 0x80, 0x3d, 0x42, 0xb0, 0xce, 0x3e, 0x6a, 0x50, 0xaf, 0x3c,
  0x92, 0xb9, 0x3b, 0xbe, 0x77, 0xb5, 0xc7, 0xbe, 0x3f, 0x18, 0x7f, 0x3d,
  0xa9, 0x97, 0xab, 0xbe, 0x2d, 0x00, 0x88, 0xbe, 0x7a, 0xf0, 0xc1, 0xbd,
  0x25, 0x32, 0xae, 0x3d, 0xb8, 0xa0, 0x76, 0xbe, 0x7b, 0xac, 0x6a, 0xbe,
  0x01, 0xc1, 0x18, 0xbe, 0x50, 0x38, 0xa7, 0x3e, 0xde, 0x59, 0x9b, 0xbe,
  0x4b, 0x5d, 0x0f, 0xbe, 0xdd, 0x9e, 0xcf, 0xbd, 0xe0, 0x5d, 0x16, 0xbe,
  0x34, 0x7b, 0x37, 0xbe, 0xe4, 0x0a, 0x0d, 0xbe, 0x29, 0xef, 0xfa, 0xbd,
  0xa8, 0x6b, 0x72, 0x3e, 0x9c, 0x5b, 0x83, 0xbe, 0xb2, 0x25, 0x88, 0x3e,
  0x6a, 0x22, 0x95, 0xbd, 0x2e, 0xd8, 0x3a, 0xbe, 0x2a, 0x7d, 0x85, 0xbc,
  0x50, 0xeb, 0xf0, 0xbd, 0x9a, 0xbb, 0x2f, 0xbd, 0x0e, 0xa4, 0xcd, 0x3d,
  0x1a, 0x65, 0xb4, 0xbd, 0xbe, 0x4a, 0x04, 0x3d, 0xd6, 0x16, 0xb3, 0xbe,
  0x47, 0x53, 0xd4, 0xbd, 0x84, 0xf6, 0x8f, 0xbe, 0xf6, 0xf0, 0x44, 0xbe,
  0x50, 0x08, 0xac, 0x3e, 0xd6, 0x5e, 0x18, 0x3e, 0x31, 0xe1, 0x80, 0x3e,
  0x9f, 0x53, 0x34, 0x3d, 0x7d, 0xcd, 0xb1, 0xbe, 0x04, 0xf2, 0xd7, 0x3d,
  0x25, 0x8a, 0x38, 0xbe, 0x5c, 0x50, 0x09, 0xbe, 0xbe, 0xc2, 0x25, 0x3c,
  0x86, 0xb5, 0xe6, 0xbe, 0xc6, 0xd9, 0x12, 0xbe, 0x2c, 0xc6, 0x50, 0xbd,
  0x53, 0x6a, 0x87, 0xbd, 0x8b, 0x68, 0xbe, 0xbe, 0xa0, 0x88, 0xc2, 0x3e,
  0x36, 0x77, 0xd2, 0xbd, 0x76, 0x3a, 0x8d, 0xbd, 0x16, 0x63, 0x40, 0xbe,
  0x85, 0x53, 0xdc, 0xbe, 0xed, 0x86, 0xc7, 0xbd, 0x50, 0xe1, 0x96, 0x3d,
  0xc8, 0x97, 0x26, 0xbc, 0x18, 0x93, 0x01, 0x3e, 0x47, 0x77, 0x80, 0x3c,
  0x82, 0x6a, 0xed, 0xbd, 0x40, 0xcc, 0x48, 0xbe, 0x53, 0xb3, 0xa4, 0xbd,
  0xec, 0xd5, 0x12, 0xbe, 0x52, 0x30, 0x83, 0xbe, 0xfd, 0x48, 0x8f, 0x3d,
  0x5c, 0xb1, 0x05, 0xbc, 0x16, 0x9b, 0x27, 0xbd, 0x72, 0x63, 0x30, 0xbe,
  0x04, 0x34, 0xf5, 0xbd, 0x0a, 0x39, 0x84, 0xbd, 0x28, 0x02, 0xcf, 0xbd,
  0xe9, 0x86, 0x8c, 0xbe, 0x14, 0xda, 0x9a, 0xbc, 0xb2, 0xd5, 0xee, 0x3d,
  0x48, 0x35, 0xc1, 0xbb, 0x59, 0xec, 0x81, 0xbe, 0x1d, 0xa0, 0x01, 0x3f,
  0x17, 0xea, 0xb0, 0x3d, 0x2e, 0xdf, 0x2f, 0x3e, 0x23, 0x90, 0x05, 0xbe,
  0x1d, 0xaa, 0x0b, 0x3f, 0xd0, 0xe2, 0x17, 0x3e, 0x3c, 0xf5, 0x5e, 0x3d,
  0x71, 0x8a, 0x2c, 0xbe, 0x17, 0xe9, 0x66, 0x3e, 0x04, 0x13, 0xbe, 0x3c,
  0x06, 0x44, 0x66, 0x3e, 0x64, 0x54, 0x8f, 0xbe, 0xd4, 0x07, 0x74, 0xbc,
  0x4d, 0x45, 0x40, 0xbf, 0x91, 0x03, 0xfa, 0xbd, 0x37, 0x4d, 0xa3, 0xbe,
  0xf9, 0x0b, 0x3c, 0xbf, 0xb5, 0x89, 0x5c, 0xbf, 0xaa, 0xcf, 0xdb, 0xbe,
  0x68, 0xd3, 0x83, 0x3c, 0x0a, 0xf5, 0x81, 0xbe, 0xe3, 0xc0, 0xd5, 0xbd,
  0xf9, 0xe8, 0xca, 0x3d, 0xb8, 0x00, 0x83, 0x3e, 0xd8, 0xe8, 0x2d, 0x3d,
  0xda, 0x23, 0x08, 0xbf, 0x0a, 0x6b, 0xe1, 0xbe, 0x97, 0x76, 0x3c, 0x3d,
  0x3b, 0x3c, 0x3c, 0xbe, 0xce, 0x89, 0x36, 0x3b, 0x82, 0x3c, 0xb5, 0xbd,
  0xd0, 0xbf, 0x5f, 0x3e, 0xd7, 0x71, 0x19, 0x3f, 0x2f, 0x92, 0x15, 0xbe,
  0xb2, 0x0f, 0x07, 0xbf, 0x18, 0xcc, 0x04, 0xbd, 0x4b, 0x8b, 0x0e, 0x3e,
  0xf8, 0x13, 0xd6, 0x3d, 0x2c, 0x56, 0xa2, 0xbe, 0x6a, 0x71, 0x18, 0xbf,
  0x1a, 0x23, 0xa3, 0x3e, 0xd3, 0x29, 0xcd, 0x3a, 0xd2, 0x83, 0x50, 0xbe,
  0xa5, 0x42, 0x43, 0xbd, 0x4d, 0xe4, 0x1f, 0x3e, 0x26, 0x4c, 0x2b, 0xbe,
  0x16, 0x54, 0xdc, 0xbd, 0x9f, 0xcb, 0x5b, 0xbc, 0xa5, 0x47, 0xba, 0x3d,
  0x55, 0x2a, 0xae, 0xbd, 0x3e, 0x80, 0xe1, 0x3d, 0xf3, 0x08, 0x15, 0xbd,
  0x0e, 0x93, 0xda, 0xbd, 0x27, 0x18, 0xe6, 0xbe, 0xc1, 0xb7, 0x84, 0xbe,
  0xe2, 0x82, 0x14, 0xbe, 0xa4, 0xda, 0x3f, 0xbe, 0x00, 0x0b, 0x87, 0xbd,
  0x07, 0x0a, 0x89, 0xbe, 0x1b, 0xcf, 0x47, 0x3c, 0x46, 0x0b, 0x0b, 0xbf,
  0xeb, 0x63, 0x0c, 0xbf, 0xbe, 0x76, 0x33, 0x3e, 0xe1, 0x1e, 0x8e, 0xbe,
  0xea, 0xac, 0xcf, 0x3d, 0x27, 0x81, 0xc7, 0x3c, 0x45, 0xc6, 0xba, 0xbe,
  0xe5, 0xfd, 0x06, 0xbb, 0xb2, 0x7a, 0xb2, 0xbe, 0x09, 0xee, 0x62, 0xbe,
  0x6d, 0x9e, 0x12, 0x3d, 0x04, 0x96, 0x71, 0xbe, 0xcf, 0x2d, 0x49, 0xbc,
  0x3a, 0xf9, 0x5e, 0x3d, 0x7d, 0xd2, 0x8b, 0x3d, 0x82, 0x93, 0xea, 0x3c,
  0xa1, 0xf4, 0x97, 0xbe, 0xe1, 0x54, 0x58, 0xbe, 0xe3, 0x9a, 0x0a, 0x3e,
  0x2c, 0x28, 0x86, 0x3e, 0x97, 0x80, 0x39, 0x3e, 0xaa, 0xd7, 0x0e, 0x3e,
  0xc6, 0xae, 0x43, 0x3d, 0xb4, 0x53, 0x03, 0x3e, 0xc0, 0xc7, 0x04, 0x3e,
  0xf0, 0x91, 0x34, 0xbf, 0xa7, 0xad, 0xfb, 0x3d, 0xc7, 0x34, 0xb5, 0xbd,
  0x93, 0xf2, 0x7c, 0xbc, 0x2d, 0x0e, 0xd3, 0x3b, 0xc5, 0x40, 0x84, 0xbb,
  0xba, 0xc4, 0x7c, 0xbe, 0x8f, 0x7a, 0x5a, 0xbf, 0x76, 0x29, 0x45, 0xbf,
  0x3d, 0xc7, 0x4d, 0x3d, 0xf9, 0xdd, 0xc6, 0xbb, 0x4d, 0x3b, 0xc0, 0x3d,
  0xd0, 0xfb, 0x4f, 0x3c, 0x2f, 0x6d, 0x49, 0xbc, 0x32, 0xc6, 0xc1, 0xbd,
  0xcf, 0xe1, 0x43, 0xbf, 0x80, 0x78, 0x24, 0xbd, 0x65, 0xe6, 0x2b, 0x3c,
  0xa3, 0xbb, 0x2c, 0xbe, 0xff, 0x3d, 0x83, 0x3d, 0x31, 0x83, 0x3c, 0xbd,
  0x9d, 0x47, 0x10, 0xbe, 0x60, 0x05, 0xa5, 0x3d, 0x5d, 0x2c, 0x14, 0xbf,
  0x89, 0x9d, 0x93, 0xbe, 0xe2, 0xdd, 0xff, 0xff, 0x10, 0x00, 0x00, 0x00,
  0x0a, 0x00, 0x00, 0x00, 0x1c, 0x00, 0x00, 0x00, 0x38, 0x00, 0x00, 0x00,
  0x04, 0x00, 0x00, 0x00, 0x10, 0x00, 0x00, 0x00, 0x04, 0x00, 0x00, 0x00,
  0x01, 0x00, 0x00, 0x00, 0x08, 0x00, 0x00, 0x00, 0x1a, 0x00, 0x00, 0x00,
  0x73, 0x65, 0x71, 0x75, 0x65, 0x6e, 0x74, 0x69, 0x61, 0x6c, 0x2f, 0x63,
  0x6f, 0x6e, 0x76, 0x32, 0x64, 0x5f, 0x31, 0x2f, 0x43, 0x6f, 0x6e, 0x76,
  0x32, 0x44, 0x00, 0x00, 0x58, 0xdd, 0xff, 0xff, 0x62, 0xde, 0xff, 0xff,
  0x04, 0x00, 0x00, 0x00, 0x80, 0x01, 0x00, 0x00, 0x72, 0x0c, 0xbb, 0xbc,
  0x44, 0x7a, 0xce, 0x3d, 0x04, 0xa5, 0xd7, 0xbd, 0x5c, 0xb7, 0xf1, 0xbc,
  0x0a, 0x64, 0xe5, 0x3d, 0x0f, 0x1d, 0x0f, 0xbe, 0x8c, 0x61, 0xa5, 0x3c,
  0xe4, 0xfb, 0x41, 0x3d, 0x1f, 0x66, 0xef, 0xbd, 0xb4, 0x98, 0xb3, 0x3d,
  0x7e, 0x26, 0x88, 0xbd, 0x2a, 0xb0, 0xbb, 0x3c, 0x6f, 0xcf, 0x56, 0x3e,
  0xd6, 0xe6, 0xa8, 0xbc, 0x35, 0x11, 0xe8, 0x3d, 0x95, 0x9e, 0xd3, 0x3e,
  0x68, 0xe9, 0x2a, 0x3e, 0x30, 0x9a, 0x0a, 0xbe, 0x2f, 0x36, 0x4e, 0x3d,
  0xf8, 0xa5, 0x16, 0x3c, 0x0c, 0x05, 0x3b, 0x3e, 0x26, 0x09, 0xef, 0xbe,
  0xd4, 0xa3, 0x4c, 0xbe, 0x45, 0x27, 0xff, 0xbc, 0x92, 0x38, 0x06, 0xbf,
  0xcb, 0xad, 0x24, 0xbd, 0x87, 0x20, 0xbb, 0x3d, 0xfd, 0xe1, 0x73, 0xbd,
  0xf3, 0x7e, 0x7e, 0xbd, 0x34, 0x35, 0x22, 0x3b, 0xdf, 0x2c, 0xca, 0x3e,
  0x49, 0x6f, 0x25, 0x3d, 0xa3, 0x9a, 0x7f, 0xbd, 0xe1, 0xa7, 0x34, 0x3e,
  0x6c, 0x4f, 0x80, 0x3d, 0x63, 0xe7, 0xbf, 0xbb, 0x90, 0x26, 0x8f, 0x3d,
  0xfa, 0x89, 0x92, 0xbd, 0x4e, 0x98, 0x2c, 0xbd, 0x5c, 0x10, 0x94, 0x3d,
  0x26, 0x0a, 0x36, 0xbc, 0x5e, 0x95, 0xdc, 0xbe, 0x46, 0x3d, 0x34, 0xbe,
  0x43, 0xb2, 0x4c, 0x3e, 0xa8, 0x64, 0x4b, 0x3e, 0xd9, 0xb6, 0xfd, 0x3d,
  0x0b, 0xc3, 0x86, 0xbd, 0x0f, 0xde, 0x8b, 0x3e, 0x08, 0xd3, 0x1f, 0xbb,
  0x26, 0xc7, 0x8a, 0xbd, 0x60, 0xa4, 0xb0, 0x3d, 0xa1, 0xcd, 0x92, 0x3c,
  0x18, 0x80, 0x85, 0xbd, 0xbb, 0xbf, 0x8d, 0xbd, 0x6d, 0x9f, 0x7e, 0x3e,
  0x9f, 0x64, 0x05, 0x3d, 0x67, 0xc1, 0x8e, 0xbd, 0xbb, 0xac, 0x98, 0x3e,
  0x34, 0xc9, 0xeb, 0x3d, 0x96, 0xcf, 0x56, 0x3d, 0xd0, 0x28, 0x61, 0x3e,
  0x55, 0xaa, 0xcb, 0xbd, 0xc8, 0x19, 0x8b, 0xbe, 0x40, 0x53, 0x31, 0x3e,
  0x2e, 0xdf, 0x11, 0x3e, 0xf3, 0x8d, 0xa0, 0xbd, 0xa3, 0xc0, 0x94, 0xbd,
  0x24, 0x01, 0xde, 0xbd, 0xbf, 0x45, 0x42, 0xbe, 0x91, 0x34, 0x54, 0x3e,
  0x21, 0x2d, 0xdb, 0xbc, 0x30, 0x0d, 0x39, 0xbe, 0x1e, 0xf3, 0xe4, 0xbd,
  0x05, 0x63, 0xff, 0xbd, 0xd1, 0xaa, 0x55, 0xbe, 0xcb, 0x25, 0x25, 0x3e,
  0x24, 0x48, 0x79, 0xbe, 0xa0, 0x09, 0xa3, 0xbe, 0xb0, 0xcf, 0xeb, 0x3d,
  0xed, 0x97, 0x84, 0x3e, 0x41, 0x89, 0xc0, 0x3e, 0x53, 0x00, 0x14, 0xbd,
  0xeb, 0xd7, 0x9e, 0x3b, 0x73, 0x81, 0x8d, 0x3d, 0xeb, 0xab, 0xc0, 0x3e,
  0xd7, 0x82, 0x39, 0x3e, 0x98, 0xab, 0x83, 0x3d, 0xcf, 0x42, 0x50, 0xbe,
  0x83, 0x6d, 0xc4, 0x3d, 0xc1, 0x52, 0x32, 0x3e, 0xb5, 0xf3, 0x98, 0x3e,
  0x1d, 0xe5, 0x02, 0xbe, 0x95, 0x55, 0xed, 0xbd, 0x62, 0x64, 0xd1, 0xbe,
  0xaf, 0x9f, 0x96, 0xbe, 0x70, 0x82, 0x4f, 0xbe, 0xba, 0xdf, 0xff, 0xff,
  0x10, 0x00, 0x00, 0x00, 0x09, 0x00, 0x00, 0x00, 0x1c, 0x00, 0x00, 0x00,
  0x38, 0x00, 0x00, 0x00, 0x04, 0x00, 0x00, 0x00, 0x08, 0x00, 0x00, 0x00,
  0x04, 0x00, 0x00, 0x00, 0x03, 0x00, 0x00, 0x00, 0x01, 0x00, 0x00, 0x00,
  0x18, 0x00, 0x00, 0x00, 0x73, 0x65, 0x71, 0x75, 0x65, 0x6e, 0x74, 0x69,
  0x61, 0x6c, 0x2f, 0x63, 0x6f, 0x6e, 0x76, 0x32, 0x64, 0x2f, 0x43, 0x6f,
  0x6e, 0x76, 0x32, 0x44, 0x00, 0x00, 0x00, 0x00, 0x30, 0xdf, 0xff, 0xff,
  0x3a, 0xe0, 0xff, 0xff, 0x04, 0x00, 0x00, 0x00, 0x00, 0x01, 0x00, 0x00,
  0xae, 0x8b, 0xd2, 0x3c, 0x0d, 0xf5, 0x03, 0xbf, 0xf2, 0x3c, 0x1e, 0x3e,
  0x82, 0x6d, 0xd7, 0x3e, 0x8f, 0x4b, 0x89, 0xbe, 0x91, 0x5f, 0x54, 0xbe,
  0x22, 0x96, 0xa8, 0x3e, 0xec, 0x5c, 0xa8, 0x3e, 0x23, 0x04, 0x08, 0xbe,
  0x44, 0xe0, 0x5e, 0xbe, 0x25, 0xdc, 0x57, 0x3c, 0x82, 0xc1, 0x64, 0x3e,
  0x62, 0x09, 0xb3, 0x3e, 0x33, 0x6f, 0xba, 0xbe, 0xb3, 0xd2, 0xae, 0xbd,
  0x91, 0xd2, 0xb3, 0xbc, 0x98, 0xe6, 0x26, 0x3d, 0xf0, 0x5b, 0x44, 0xbf,
  0xb7, 0x42, 0x51, 0x3e, 0x19, 0x75, 0xc3, 0x3e, 0x21, 0xae, 0x8a, 0xbe,
  0xe2, 0x76, 0xb7, 0xbd, 0xdd, 0x83, 0x8e, 0x3e, 0x18, 0xe4, 0xb2, 0x3e,
  0x46, 0x18, 0x7d, 0xbd, 0xff, 0x64, 0x82, 0xbe, 0x2e, 0x4e, 0x06, 0x3d,
  0x34, 0x4a, 0x72, 0x3e, 0xb8, 0x6d, 0xbe, 0x3e, 0xe2, 0x6b, 0xab, 0xbe,
  0xff, 0xcb, 0xa9, 0x3e, 0x07, 0xd6, 0xb2, 0xbe, 0x74, 0x43, 0x04, 0xbf,
  0xcf, 0x88, 0x82, 0xbe, 0x94, 0x27, 0xbc, 0x3d, 0xde, 0xc2, 0xab, 0x3e,
  0x64, 0xd0, 0x69, 0xbe, 0x4e, 0x96, 0x16, 0xbe, 0x85, 0xa4, 0xac, 0x3d,
  0x5a, 0x2b, 0x8f, 0x3e, 0xb2, 0xb1, 0x0c, 0xbe, 0xe0, 0x33, 0xd5, 0xbe,
  0xcf, 0xbe, 0xe9, 0xbd, 0xe6, 0x8b, 0x44, 0x3d, 0x3f, 0x7a, 0x82, 0x3e,
  0xea, 0xf0, 0xcf, 0xbe, 0x63, 0x6d, 0x02, 0xbf, 0xa6, 0x2d, 0xa3, 0xbe,
  0x19, 0x01, 0xc6, 0xbd, 0x63, 0x7e, 0x41, 0xbe, 0xd2, 0x3a, 0x13, 0x3e,
  0x02, 0x00, 0xb1, 0x3e, 0xc4, 0x92, 0x9a, 0xbe, 0x8a, 0x10, 0x87, 0xbd,
  0xad, 0x09, 0xf1, 0x3d, 0x01, 0xe3, 0x7f, 0x3e, 0xe9, 0x38, 0x46, 0xbd,
  0x8e, 0x63, 0x6b, 0xbe, 0x11, 0xe6, 0x7f, 0x3d, 0xeb, 0x78, 0x29, 0x3e,
  0x4f, 0xe3, 0xc6, 0x3e, 0x91, 0x5f, 0xcd, 0xbe, 0x13, 0xe1, 0x4e, 0xbd,
  0xed, 0x80, 0xf0, 0xbe, 0x12, 0xe1, 0xff, 0xff, 0x10, 0x00, 0x00, 0x00,
  0x08, 0x00, 0x00, 0x00, 0x14, 0x00, 0x00, 0x00, 0x30, 0x00, 0x00, 0x00,
  0x02, 0x00, 0x00, 0x00, 0x04, 0x00, 0x00, 0x00, 0x10, 0x00, 0x00, 0x00,
  0x19, 0x00, 0x00, 0x00, 0x73, 0x65, 0x71, 0x75, 0x65, 0x6e, 0x74, 0x69,
  0x61, 0x6c, 0x2f, 0x64, 0x65, 0x6e, 0x73, 0x65, 0x5f, 0x31, 0x2f, 0x4d,
  0x61, 0x74, 0x4d, 0x75, 0x6c, 0x00, 0x00, 0x00, 0x80, 0xe0, 0xff, 0xff,
  0x8a, 0xe1, 0xff, 0xff, 0x04, 0x00, 0x00, 0x00, 0x00, 0x1c, 0x00, 0x00,
  0xd7, 0x39, 0x49, 0x3e, 0xad, 0x10, 0x06, 0xbd, 0x34, 0x02, 0xd0, 0x3d,
  0x58, 0x49, 0x3c, 0x3e, 0x89, 0x92, 0x42, 0xbc, 0x5e, 0xcc, 0x6e, 0x3e,
  0x6c, 0xa3, 0x45, 0xbe, 0xa5, 0x2e, 0xcf, 0x3d, 0x25, 0xad, 0x3e, 0xbc,
  0x0b, 0x13, 0x0c, 0x3d, 0x2a, 0x22, 0xe6, 0xbd, 0x1a, 0xfe, 0x4f, 0x3e,
  0x1c, 0xe9, 0xcf, 0xbd, 0xad, 0xa9, 0xbf, 0x3c, 0x96, 0x32, 0xbc, 0x3d,
  0x37, 0x00, 0x30, 0xbd, 0xd2, 0xa2, 0xd7, 0x3d, 0x56, 0x51, 0xf5, 0xbd,
  0x3c, 0xad, 0x1f, 0x3e, 0xff, 0x50, 0x30, 0x3e, 0x24, 0x11, 0x36, 0xbe,
  0xbf, 0x42, 0xaa, 0x3d, 0x22, 0x16, 0xa3, 0x3d, 0x5e, 0x25, 0x7c, 0xbe,
  0x1c, 0xad, 0xae, 0x3d, 0x67, 0xee, 0xc9, 0x3d, 0x99, 0x04, 0x1d, 0x3d,
  0xa0, 0xb8, 0xd2, 0x3e, 0xc3, 0x8b, 0x7f, 0xbd, 0x87, 0xe5, 0x91, 0x3e,
  0x72, 0x18, 0xd1, 0x3d, 0x0e, 0xd0, 0x2a, 0xbd, 0x5a, 0x92, 0xb4, 0xbe,
  0xc7, 0x23, 0x18, 0xbf, 0x11, 0x74, 0x86, 0xbd, 0xfc, 0xa1, 0xfe, 0x3e,
  0x68, 0x5a, 0x03, 0xbf, 0x11, 0xad, 0xe1, 0xbe, 0xf1, 0xbf, 0x8c, 0xbd,
  0xad, 0x7b, 0x28, 0xbf, 0x40, 0xfb, 0x07, 0xbd, 0x7b, 0x72, 0x10, 0xbe,
  0x27, 0x8e, 0x03, 0x3e, 0x68, 0xb9, 0x8e, 0x3e, 0xed, 0x04, 0x4f, 0xbe,
  0xd9, 0xe7, 0x7c, 0x3d, 0xea, 0xec, 0xd4, 0xbd, 0x8b, 0xf6, 0xec, 0x3d,
  0x4d, 0xcb, 0x3c, 0xbe, 0xd7, 0x67, 0x6a, 0xbe, 0x27, 0xcc, 0xcd, 0xbe,
  0x43, 0x83, 0xf8, 0x3e, 0x37, 0xa4, 0xc1, 0xbd, 0x6e, 0xca, 0x24, 0xbf,
  0x14, 0x7f, 0x2f, 0xbd, 0x7f, 0x8e, 0xa5, 0xbe, 0x4d, 0xf8, 0x23, 0xbd,
  0x85, 0xf2, 0x67, 0xbd, 0xd1, 0xe0, 0xc8, 0xbc, 0x74, 0xca, 0xc9, 0x3e,
  0x17, 0xbb, 0x75, 0x3d, 0xf6, 0x01, 0xf9, 0xbd, 0xfa, 0x74, 0x69, 0x3e,
  0x13, 0x61, 0xe3, 0xbd, 0x9c, 0xad, 0x17, 0xbe, 0x82, 0x6a, 0xf0, 0xbe,
  0xfb, 0xaf, 0x7c, 0xbe, 0xd7, 0x39, 0xaa, 0x3e, 0x99, 0x5b, 0x5f, 0xbe,
  0x6f, 0x20, 0xc6, 0xbe, 0x7f, 0x0d, 0x36, 0xbe, 0x8e, 0x45, 0x75, 0xbe,
  0x42, 0xb7, 0x35, 0xbd, 0xba, 0x0b, 0xba, 0xbd, 0x73, 0x46, 0x81, 0x3e,
  0x41, 0x23, 0x88, 0x3f, 0x4e, 0xe6, 0x85, 0xbe, 0xb3, 0x4f, 0x9e, 0xbd,
  0xe9, 0xde, 0x12, 0x3d, 0x65, 0x53, 0x15, 0x3e, 0xe1, 0x45, 0x3a, 0xbe,
  0xf0, 0xb3, 0x04, 0xbf, 0xcc, 0x52, 0x87, 0xbd, 0xbd, 0x39, 0xe3, 0x3e,
  0xde, 0xd0, 0x76, 0xbe, 0x8c, 0x62, 0xd4, 0xbe, 0x77, 0x98, 0x59, 0x3d,
  0x87, 0xfb, 0x26, 0xbe, 0xa4, 0x45, 0x8d, 0xbc, 0xcd, 0xf8, 0x83, 0xbe,
  0xf7, 0x3b, 0x9f, 0x3e, 0xbb, 0xd4, 0x3a, 0x3f, 0x8a, 0xd6, 0x38, 0x3d,
  0x71, 0xd2, 0x13, 0xbd, 0xf7, 0xed, 0x0f, 0xbd, 0x77, 0x6f, 0xe7, 0xbc,
  0xf8, 0xc6, 0x76, 0xbd, 0xee, 0x06, 0x05, 0xbf, 0x75, 0xe6, 0xea, 0xbd,
  0xe0, 0xd0, 0x6d, 0xbe, 0xdd, 0x2a, 0xe2, 0xbd, 0x51, 0x1c, 0x10, 0xbf,
  0x91, 0xce, 0xd1, 0xbc, 0xaa, 0x25, 0x29, 0xbe, 0x53, 0xe8, 0xba, 0xbd,
  0x87, 0x53, 0x81, 0x3b, 0xbe, 0x90, 0xcc, 0xbc, 0xf6, 0x7c, 0x2e, 0xbc,
  0xa4, 0x84, 0x8a, 0x3c, 0x78, 0x12, 0x54, 0x3d, 0xe8, 0xa9, 0x6b, 0x3c,
  0x5d, 0xfd, 0x89, 0xbc, 0x2b, 0x72, 0xa4, 0xbd, 0x57, 0x1a, 0x5c, 0xbe,
  0x6e, 0xd9, 0x3a, 0xbc, 0xd1, 0x8c, 0x4d, 0xbe, 0x2d, 0xf2, 0x3e, 0x3c,
  0xdd, 0x14, 0xa6, 0xbd, 0x6a, 0x8c, 0x5d, 0xbe, 0x93, 0x3c, 0x53, 0xbe,
  0x36, 0xad, 0x74, 0xbe, 0x6b, 0x8e, 0x13, 0x3d, 0xdd, 0x1b, 0x81, 0xbe,
  0xd6, 0x3e, 0x89, 0xbd, 0xc1, 0x9d, 0x35, 0xba, 0x30, 0xbb, 0x08, 0x3e,
  0xd2, 0x4b, 0x0b, 0xbe, 0x3c, 0x60, 0x31, 0x3e, 0xd5, 0x03, 0xca, 0xbd,
  0x5d, 0x1f, 0x9e, 0xbe, 0x6d, 0xd2, 0xb8, 0x3d, 0xa1, 0xc6, 0xad, 0xbd,
  0x5b, 0x2b, 0x76, 0x3d, 0x2c, 0xbd, 0x07, 0x3d, 0xa6, 0x9d, 0xea, 0xbc,
  0x72, 0x4f, 0x7b, 0x3c, 0xab, 0xc0, 0x7b, 0xbe, 0xe7, 0x0f, 0xa0, 0xbd,
  0x6f, 0x03, 0x3c, 0x3d, 0x3f, 0xf3, 0x8e, 0x3c, 0x0c, 0x07, 0x92, 0x3d,
  0x17, 0x68, 0x36, 0x3e, 0x18, 0x37, 0x13, 0xbd, 0x6e, 0xf5, 0x34, 0x3e,
  0x05, 0x75, 0x55, 0xbe, 0xd3, 0x4b, 0xc5, 0x3d, 0xe9, 0xb2, 0x10, 0x3e,
  0x14, 0x11, 0x5a, 0x3e, 0xa1, 0x6a, 0xf4, 0x3b, 0x64, 0x5b, 0x21, 0x3d,
  0x39, 0x7f, 0x2a, 0xbe, 0x27, 0xc1, 0x93, 0xbd, 0xa7, 0x90, 0x7b, 0xbe,
  0xda, 0x10, 0xc8, 0xbd, 0xcd, 0xef, 0x1f, 0xbe, 0x63, 0xa2, 0x1c, 0x3d,
  0xc9, 0x9f, 0x1b, 0x3e, 0x7a, 0x64, 0x14, 0x3d, 0x80, 0x95, 0x2b, 0x3e,
  0x75, 0xa2, 0x99, 0x3e, 0x97, 0xa7, 0xae, 0x3c, 0x0c, 0xe2, 0x9c, 0xbe,
  0x75, 0x0b, 0x38, 0xbe, 0x8d, 0xed, 0xdb, 0xbc, 0x46, 0x48, 0xc4, 0xbc,
  0x8f, 0x48, 0x92, 0xbe, 0x26, 0x5d, 0x66, 0xbe, 0x93, 0x38, 0x1a, 0xbe,
  0x60, 0x67, 0xc9, 0xbd, 0x3a, 0x97, 0xa0, 0x3d, 0xc3, 0xc7, 0x4c, 0x3d,
  0xa0, 0xdc, 0xf8, 0xbd, 0x2b, 0x25, 0x1d, 0x3e, 0xb3, 0xf7, 0x80, 0xbd,
  0xaf, 0xf8, 0xa5, 0x3d, 0x4d, 0xfb, 0x96, 0xbd, 0x17, 0x3b, 0x6e, 0xbe,
  0x73, 0x87, 0x97, 0xbd, 0xa3, 0x6c, 0x01, 0x3e, 0xb9, 0xd5, 0xee, 0x3d,
  0xa5, 0x67, 0x51, 0xbe, 0x29, 0x63, 0xf8, 0xbd, 0x3e, 0x37, 0x41, 0xbe,
  0x2c, 0xc8, 0xcc, 0xbd, 0xbf, 0xf3, 0x4d, 0xbe, 0xd4, 0xa1, 0x49, 0x3e,
  0xf6, 0x5c, 0x6a, 0xbe, 0x2c, 0x22, 0xeb, 0xbd, 0x9b, 0x4f, 0xb8, 0x3d,
  0x14, 0x7e, 0x32, 0x3e, 0xea, 0x4c, 0xcb, 0xbc, 0x24, 0xab, 0x8f, 0x3c,
  0x50, 0x44, 0xa5, 0xbe, 0x52, 0xca, 0xd6, 0xbd, 0xa3, 0x57, 0xac, 0x3c,
  0x08, 0x3e, 0x96, 0x3d, 0x9b, 0x53, 0x1e, 0xbe, 0xb3, 0x10, 0xb9, 0xbe,
  0x62, 0x0b, 0xd5, 0xbc, 0x9b, 0xc2, 0x10, 0xbe, 0x70, 0x59, 0x74, 0x3d,
  0xa1, 0xf2, 0xc5, 0xbd, 0x7e, 0xb1, 0x86, 0xbd, 0xfa, 0xff, 0x93, 0x3d,
  0x80, 0xe0, 0xf8, 0xbd, 0x6d, 0xd7, 0x94, 0x3c, 0xdc, 0x42, 0x41, 0x3e,
  0x30, 0xc6, 0xc3, 0x3d, 0xca, 0xc3, 0x75, 0x3d, 0x4a, 0xde, 0x2c, 0xbe,
  0xaa, 0x2e, 0x08, 0x3e, 0x7e, 0xce, 0xcf, 0x3c, 0x8c, 0x87, 0xc9, 0xbb,
  0xc0, 0xbf, 0xa2, 0xbd, 0x2d, 0x80, 0xb6, 0xbd, 0x7e, 0xe6, 0x38, 0xbd,
  0x03, 0x94, 0x90, 0xbe, 0xc2, 0x10, 0x4d, 0x3d, 0x14, 0xdf, 0x1b, 0xbe,
  0x14, 0xbc, 0xc7, 0xbe, 0x57, 0xb3, 0x67, 0x3d, 0xa0, 0x5b, 0x7e, 0x3d,
  0xb9, 0xe1, 0xf5, 0xbc, 0xea, 0x3c, 0x89, 0x3d, 0x56, 0xb1, 0x0e, 0xbd,
  0xb4, 0x12, 0x04, 0xbf, 0x89, 0x54, 0x5c, 0xbf, 0x15, 0xe3, 0xa0, 0xbd,
  0xf1, 0xf4, 0x38, 0x3d, 0xad, 0x60, 0x0b, 0x3d, 0xc1, 0xc4, 0xf1, 0x3c,
  0x67, 0x74, 0x99, 0x3d, 0xd8, 0x30, 0x96, 0xbd, 0x72, 0xdf, 0xbd, 0xbe,
  0x09, 0x58, 0xb3, 0x3b, 0xb2, 0xb4, 0x44, 0xbe, 0xd7, 0x32, 0xaa, 0xbd,
  0xc9, 0x1c, 0xa8, 0xbe, 0xd6, 0x84, 0x67, 0xbe, 0xdb, 0x77, 0x83, 0xbe,
  0x5e, 0xef, 0xc3, 0xba, 0x98, 0x4b, 0x11, 0xbf, 0x15, 0x64, 0x6c, 0xbf,
  0xb2, 0xd5, 0x2d, 0xbe, 0xdb, 0x70, 0xfa, 0xbb, 0xc6, 0x32, 0x19, 0xbd,
  0x3d, 0xbc, 0x89, 0xbd, 0x48, 0x0f, 0x93, 0xbe, 0xfb, 0xcb, 0x97, 0xbd,
  0x8c, 0x33, 0x0e, 0xbe, 0x14, 0xc7, 0x41, 0xbe, 0x63, 0xea, 0x71, 0xbd,
  0x5d, 0x88, 0x14, 0x3e, 0x44, 0xdd, 0x3e, 0xbd, 0x67, 0x77, 0xdb, 0x3d,
  0xf4, 0xc2, 0x84, 0xbd, 0x70, 0x1d, 0x79, 0xbe, 0x26, 0x3e, 0xb2, 0xbe,
  0x88, 0x01, 0x5f, 0xbf, 0x06, 0x9d, 0x45, 0x3e, 0x0a, 0xc7, 0xb2, 0x3c,
  0xd7, 0xda, 0xa7, 0xbd, 0xb0, 0xdc, 0xaa, 0xbd, 0xbd, 0xd9, 0x96, 0xbe,
  0x27, 0x55, 0x54, 0xbd, 0x83, 0x22, 0x79, 0xbe, 0x5a, 0x41, 0x62, 0xbe,
  0x5f, 0x1e, 0x32, 0xbe, 0xd7, 0x63, 0x80, 0x3d, 0xe4, 0x2e, 0x8f, 0x3d,
  0x2b, 0x84, 0x0f, 0xbc, 0x3d, 0x3a, 0x51, 0xbe, 0xf8, 0x6f, 0x90, 0xbe,
  0x55, 0x58, 0x28, 0xbf, 0x94, 0xb1, 0x39, 0xbf, 0xbf, 0x41, 0x15, 0x3d,
  0xd6, 0x9a, 0x2d, 0xbe, 0xb3, 0x60, 0xff, 0xbd, 0x5b, 0xe9, 0xf3, 0xbd,
  0x5f, 0xdc, 0x07, 0xbf, 0xde, 0xed, 0xe3, 0xbc, 0x05, 0x30, 0x29, 0xbf,
  0x54, 0xda, 0x80, 0xbe, 0x2b, 0x01, 0x8e, 0xbe, 0x18, 0x50, 0xfb, 0xbd,
  0xb1, 0x76, 0x47, 0xbe, 0x40, 0xf4, 0x23, 0x3c, 0xac, 0xf5, 0x90, 0xbe,
  0xfa, 0xd0, 0xa1, 0xbd, 0x53, 0x43, 0x82, 0xbe, 0xf8, 0x4b, 0x2f, 0xbf,
  0x22, 0xff, 0xde, 0x3d, 0x26, 0x6e, 0x87, 0x3e, 0x44, 0x98, 0xab, 0xbd,
  0x63, 0x53, 0xf5, 0xbd, 0xb2, 0xc3, 0xae, 0x3d, 0x6b, 0xee, 0x86, 0xbd,
  0xb1, 0x65, 0xfe, 0xbd, 0xde, 0x3e, 0x49, 0xbe, 0x21, 0x9f, 0xa6, 0x3e,
  0x04, 0x33, 0x0f, 0x3e, 0x3b, 0xb9, 0x3d, 0xbc, 0xa9, 0x79, 0xd4, 0x3d,
  0x67, 0x00, 0x28, 0xbe, 0x52, 0x6c, 0x53, 0x3e, 0xa1, 0xa4, 0x01, 0xbe,
  0xc8, 0x7b, 0x67, 0xbe, 0xce, 0x20, 0x15, 0x3e, 0x6b, 0xaa, 0xfb, 0x3d,
  0x92, 0xbc, 0x18, 0x3d, 0x7d, 0x7b, 0x0e, 0xbf, 0x3d, 0x4a, 0x92, 0x3c,
  0x7c, 0x2c, 0x6a, 0xbd, 0xe6, 0xb0, 0xfa, 0x3b, 0x02, 0x24, 0xe7, 0xbe,
  0x06, 0xdc, 0x2a, 0x3f, 0xa2, 0xa8, 0xb1, 0xbd, 0x47, 0x57, 0xff, 0xbd,
  0x33, 0x5d, 0xe0, 0x3d, 0x52, 0xa4, 0x8a, 0xbe, 0xe9, 0x87, 0xe7, 0x3d,
  0xa8, 0xc1, 0xd5, 0x3c, 0xaf, 0xcd, 0x87, 0x3d, 0x8c, 0xff, 0x1f, 0x3e,
  0xab, 0x3c, 0x4e, 0x3d, 0x80, 0x4d, 0x4f, 0x3d, 0xe7, 0x8f, 0x90, 0xbe,
  0x09, 0xe1, 0xeb, 0x3c, 0xbe, 0x52, 0x90, 0x3d, 0xff, 0x44, 0xbe, 0x3d,
  0x13, 0x83, 0xdd, 0xbd, 0xfe, 0xac, 0xb2, 0x3d, 0xeb, 0x4b, 0x9f, 0x3d,
  0x2b, 0x23, 0x7e, 0x3b, 0x5d, 0xe4, 0x5a, 0x3d, 0xa0, 0x32, 0x29, 0xbe,
  0x90, 0xdc, 0x19, 0xbe, 0x73, 0x64, 0x85, 0xbd, 0x43, 0x11, 0x41, 0x3c,
  0x5f, 0x3b, 0x55, 0x3f, 0x62, 0xee, 0x78, 0xbd, 0x4b, 0xba, 0x72, 0xbe,
  0x01, 0xd2, 0xe6, 0xbd, 0x3b, 0xff, 0x8f, 0x3c, 0xbd, 0x71, 0x9d, 0xbd,
  0x0b, 0xaf, 0x10, 0x3d, 0x8f, 0xd2, 0xcd, 0x3e, 0xbd, 0x0a, 0x06, 0xbe,
  0x44, 0xbe, 0x72, 0x3e, 0x87, 0x30, 0x1f, 0x3e, 0x46, 0x36, 0xef, 0xbc,
  0x37, 0x2f, 0x18, 0x3d, 0xaf, 0xc5, 0x90, 0xbe, 0x00, 0xb0, 0x13, 0x3d,
  0xb5, 0x8b, 0xd3, 0xbc, 0x7a, 0xd7, 0x2d, 0x3f, 0x7d, 0x51, 0x8c, 0xbd,
  0xd9, 0x79, 0x91, 0xbe, 0x5c, 0x85, 0x06, 0xbe, 0x98, 0x01, 0x95, 0x3e,
  0xc4, 0xf3, 0x06, 0xbd, 0x50, 0xef, 0x2c, 0x3d, 0x17, 0x3f, 0x5d, 0x3e,
  0x39, 0x1b, 0xab, 0x3e, 0x71, 0x60, 0x99, 0xbd, 0x90, 0x95, 0x78, 0xbd,
  0xde, 0x57, 0x0d, 0x3e, 0x3c, 0x79, 0x3a, 0xbe, 0x0f, 0x81, 0x75, 0xbe,
  0xec, 0xab, 0x4e, 0xbd, 0x77, 0xfa, 0xfc, 0x3c, 0x81, 0xe4, 0x2f, 0x3f,
  0xde, 0xcc, 0xea, 0xbd, 0x4e, 0x24, 0x4f, 0x3d, 0x29, 0x67, 0x49, 0xbe,
  0x75, 0x8d, 0xf3, 0x3e, 0x10, 0x0a, 0xdb, 0xbc, 0x9a, 0x6f, 0x08, 0x3e,
  0xbe, 0xee, 0xad, 0x3e, 0x83, 0xf2, 0xe4, 0x3e, 0xa8, 0xa3, 0xb9, 0x3d,
  0x7b, 0x56, 0x2a, 0x3d, 0xc5, 0x3c, 0xb4, 0xbd, 0x30, 0x3d, 0x05, 0xbf,
  0x09, 0x90, 0x9c, 0xbe, 0xc9, 0x89, 0xd0, 0xbd, 0x22, 0x87, 0xad, 0x3e,
  0xad, 0xfb, 0x84, 0x3f, 0xd3, 0x09, 0x0f, 0x3d, 0x21, 0x51, 0x8b, 0xbd,
  0x8f, 0x16, 0x7e, 0x3c, 0x8f, 0x27, 0xa8, 0x3e, 0x94, 0x65, 0x35, 0x39,
  0xb3, 0x77, 0x91, 0x3e, 0xcc, 0x70, 0xc0, 0x3e, 0x87, 0x88, 0xf4, 0x3e,
  0xf3, 0xa1, 0xb6, 0xbc, 0x91, 0xbf, 0xd4, 0x3e, 0xbb, 0xcd, 0x2d, 0xbd,
  0xee, 0x99, 0xcc, 0xbd, 0x4f, 0x1d, 0xe2, 0xbe, 0x57, 0xb7, 0x48, 0xbe,
  0x01, 0x07, 0x4e, 0x3e, 0xa5, 0xdd, 0x80, 0x3f, 0xb5, 0x9e, 0x02, 0xbf,
  0x59, 0xcc, 0x51, 0xbe, 0x95, 0xb0, 0x11, 0x3b, 0xb4, 0x4e, 0x5d, 0x3e,
  0xcb, 0x27, 0xa1, 0xbb, 0x6d, 0xea, 0x48, 0x3c, 0xa8, 0x0f, 0xfc, 0x3e,
  0x81, 0x58, 0x4c, 0x3c, 0xb5, 0xd7, 0x94, 0xbd, 0x6b, 0xcc, 0xd3, 0x3e,
  0x2c, 0x81, 0x8b, 0xbe, 0x1d, 0x74, 0x15, 0x3e, 0x25, 0xa3, 0xb3, 0xbe,
  0xb6, 0xd1, 0x65, 0x3d, 0x48, 0x5b, 0x62, 0x3c, 0x48, 0x9e, 0x7c, 0x3f,
  0x6a, 0xcc, 0xa2, 0xbd, 0x64, 0x88, 0xe2, 0xbe, 0xc8, 0x08, 0xf2, 0xbd,
  0x2a, 0xac, 0x6b, 0x3e, 0x61, 0xb0, 0x37, 0xbd, 0x19, 0xf1, 0x7e, 0xbd,
  0x88, 0xc5, 0xd9, 0x3e, 0x0c, 0x21, 0xc3, 0xbd, 0x52, 0xc5, 0x45, 0xbd,
  0x12, 0xf8, 0xcf, 0x3e, 0xd7, 0x06, 0x9c, 0xbd, 0xa9, 0x58, 0xaf, 0xbc,
  0x75, 0x9f, 0x50, 0xbe, 0x46, 0x1e, 0x92, 0xbd, 0x0f, 0xa3, 0x51, 0xbd,
  0xe8, 0x6e, 0x91, 0xbd, 0xdf, 0x34, 0x2c, 0xbe, 0xa5, 0x3d, 0x67, 0xbe,
  0xf2, 0xaa, 0x0f, 0xbe, 0xea, 0x54, 0xbc, 0xbc, 0xd5, 0x34, 0x1a, 0xbc,
  0xf0, 0x50, 0x3e, 0x3d, 0x82, 0x2f, 0x22, 0x3e, 0x04, 0x11, 0x3f, 0xbe,
  0xdf, 0x8d, 0xe5, 0x3c, 0x12, 0xaa, 0x68, 0x3d, 0x74, 0xe9, 0x2a, 0xbe,
  0xc0, 0x7e, 0xbd, 0x3c, 0x57, 0x69, 0x79, 0xbe, 0x02, 0x77, 0x54, 0x3e,
  0xf8, 0x7f, 0x88, 0xbe, 0xf9, 0xaf, 0x7d, 0x3d, 0xc8, 0x95, 0x83, 0x3e,
  0x3b, 0x5e, 0x2b, 0xbf, 0xd0, 0x74, 0x0f, 0xbe, 0x41, 0x19, 0x0e, 0xbf,
  0xdd, 0xec, 0xc7, 0xbe, 0x2c, 0xb8, 0x56, 0xbe, 0x26, 0xb0, 0x07, 0xbd,
  0xc7, 0xde, 0xef, 0xbe, 0x3d, 0x3f, 0xe2, 0x3e, 0x65, 0x14, 0x68, 0xbe,
  0x06, 0xc1, 0xcc, 0xbd, 0x1e, 0x58, 0x20, 0xbf, 0xf2, 0x50, 0x3c, 0xbe,
  0x0c, 0xd4, 0x22, 0xbd, 0x59, 0x53, 0x3d, 0x3e, 0x03, 0xbf, 0x1b, 0x3e,
  0x97, 0x9d, 0x48, 0x3e, 0xbd, 0x50, 0xf1, 0xbe, 0xed, 0x8d, 0x95, 0xbd,
  0x35, 0x3f, 0xed, 0x3e, 0xa2, 0xd7, 0x31, 0xbe, 0x30, 0xd2, 0xcf, 0x3e,
  0x47, 0xd9, 0x89, 0x3e, 0xd5, 0xa0, 0xc4, 0xbe, 0x5c, 0x34, 0x86, 0x3e,
  0xc1, 0x21, 0x1b, 0x3e, 0xd7, 0xea, 0x41, 0x3d, 0x9a, 0x4f, 0x6e, 0xbd,
  0x45, 0x46, 0x53, 0xbd, 0xd6, 0x74, 0x34, 0xbe, 0x64, 0xfa, 0xaf, 0x3d,
  0x70, 0xe7, 0x96, 0x3e, 0xea, 0x54, 0x66, 0x3d, 0x2a, 0x7e, 0x48, 0x3d,
  0xf8, 0x0e, 0xe4, 0x3b, 0xbf, 0x8d, 0x28, 0x3f, 0x2c, 0x91, 0x8e, 0xbe,
  0x6e, 0xf9, 0xd1, 0x3e, 0x48, 0x05, 0xc4, 0x3e, 0xe4, 0x2c, 0x3e, 0x3b,
  0x0a, 0x7c, 0x00, 0x3e, 0x8d, 0x24, 0x9c, 0x3b, 0x7d, 0x8c, 0x21, 0x3b,
  0x89, 0x23, 0x75, 0xbc, 0x46, 0x38, 0x4c, 0xbe, 0xbc, 0xdc, 0xab, 0xbd,
  0x22, 0x86, 0x1a, 0x3e, 0xa9, 0x98, 0xb2, 0x3d, 0xd7, 0x94, 0xa1, 0xbc,
  0xe1, 0x91, 0xf7, 0x3d, 0xe7, 0xd5, 0x40, 0x3c, 0xab, 0x3b, 0x94, 0x3e,
  0x3a, 0xa8, 0x8b, 0xbe, 0xd2, 0x25, 0xdd, 0x3c, 0x1b, 0x43, 0x4d, 0xbd,
  0x60, 0x08, 0x19, 0xbd, 0x15, 0x0b, 0x37, 0xbd, 0xb0, 0x5e, 0xe8, 0x3c,
  0xf2, 0x24, 0x56, 0x3d, 0xec, 0x2e, 0x79, 0xbd, 0x2f, 0x1a, 0x84, 0xbe,
  0x54, 0xdb, 0xae, 0x3d, 0x59, 0x2d, 0x94, 0x3d, 0x4e, 0x51, 0x81, 0x3d,
  0x4c, 0x7d, 0xe8, 0x3d, 0x24, 0xfa, 0x64, 0x3e, 0xcc, 0x1b, 0xed, 0x3b,
  0x35, 0x54, 0x1f, 0xbe, 0x09, 0x68, 0x67, 0xbe, 0xf0, 0x79, 0xef, 0xba,
  0xf0, 0xd2, 0xa2, 0x3e, 0xc4, 0x6f, 0x82, 0x3c, 0x0f, 0xae, 0xe1, 0x3e,
  0x93, 0x21, 0x06, 0xbe, 0x02, 0x01, 0x99, 0xbd, 0x94, 0x5e, 0x31, 0xbe,
  0x3a, 0x19, 0xd2, 0xbe, 0x07, 0x0c, 0x8a, 0x3d, 0x23, 0xf3, 0x88, 0xbe,
  0x9f, 0xa5, 0xeb, 0xbc, 0xab, 0x80, 0x2f, 0x3e, 0x6f, 0x1c, 0x5f, 0x3d,
  0x26, 0x68, 0x93, 0x3d, 0xf1, 0xb8, 0x41, 0xbe, 0xd0, 0x7d, 0x8a, 0xbe,
  0x59, 0x03, 0x4e, 0x3e, 0x38, 0xdf, 0xa7, 0x3e, 0xd3, 0x3f, 0x74, 0xbe,
  0xe4, 0x33, 0xc1, 0x3e, 0x25, 0xaf, 0xe0, 0xbc, 0x4d, 0x6e, 0x63, 0xbd,
  0xf3, 0x28, 0x05, 0xbd, 0xa0, 0x94, 0xaf, 0xbd, 0xfe, 0xd0, 0xe1, 0x3a,
  0x49, 0x5d, 0x91, 0xbe, 0x48, 0x9d, 0xda, 0xbd, 0x5a, 0x98, 0x13, 0x3e,
  0x38, 0xb7, 0xec, 0x3d, 0x75, 0x33, 0x07, 0x3e, 0x8c, 0x06, 0x8d, 0x3d,
  0x76, 0xe4, 0x32, 0xbe, 0x15, 0xb2, 0xa8, 0x3c, 0xe2, 0x12, 0x1d, 0xbd,
  0x07, 0xda, 0x4b, 0x3e, 0xfd, 0xfa, 0x3a, 0x3e, 0x27, 0x65, 0x10, 0x3e,
  0x97, 0xe0, 0xfe, 0x3c, 0xe0, 0x0a, 0x58, 0x3e, 0x6c, 0x7b, 0x0d, 0x3e,
  0xc3, 0x18, 0xa2, 0xbe, 0xf8, 0x0e, 0x1e, 0xbe, 0x3e, 0x2b, 0x0c, 0x3e,
  0x00, 0x72, 0xc0, 0xbe, 0x6b, 0xbd, 0x09, 0xbd, 0x12, 0xc5, 0x61, 0x3c,
  0x7f, 0xd7, 0x0c, 0xbe, 0x26, 0xc5, 0xfe, 0xbc, 0x54, 0x12, 0x32, 0x3d,
  0xf8, 0x58, 0xe8, 0x3d, 0x01, 0xb0, 0x61, 0xbd, 0x0a, 0x83, 0xad, 0xbe,
  0x23, 0x9c, 0xa7, 0xbd, 0xaa, 0x5f, 0x50, 0x3e, 0x3e, 0x8d, 0x93, 0x3e,
  0x11, 0x31, 0x02, 0xbe, 0x3c, 0x2e, 0x46, 0xbe, 0x95, 0x00, 0xcf, 0x3d,
  0x56, 0xdb, 0xa9, 0x3e, 0x5e, 0x38, 0x2a, 0xbe, 0x6b, 0xb3, 0x2c, 0x3d,
  0x53, 0x5d, 0x9b, 0x3d, 0xcf, 0xe2, 0x7a, 0x3b, 0x4e, 0xe4, 0xb6, 0xbe,
  0x76, 0xbc, 0xeb, 0xbe, 0xd9, 0x4f, 0xaa, 0xbe, 0x72, 0xe4, 0x36, 0xbe,
  0xae, 0x13, 0x1e, 0x3c, 0x32, 0x5e, 0x44, 0x3d, 0x17, 0x9d, 0x52, 0x3e,
  0x02, 0x22, 0xa4, 0xbc, 0xbb, 0x0c, 0x3d, 0xbe, 0x5b, 0xe8, 0x87, 0xbd,
  0x73, 0x0d, 0x6d, 0x3e, 0x75, 0xb6, 0xbb, 0x3d, 0xef, 0x4e, 0xf0, 0x3d,
  0xb5, 0x8f, 0x40, 0xbc, 0x8c, 0x6f, 0x4f, 0x3d, 0x07, 0xcd, 0x7c, 0xbd,
  0x51, 0x77, 0x22, 0xbd, 0x91, 0xbe, 0xfc, 0xbd, 0x48, 0xf6, 0xe2, 0x3d,
  0xd7, 0x41, 0x39, 0xbe, 0x49, 0xf9, 0xd2, 0xbd, 0x7b, 0xb9, 0x01, 0xbe,
  0x8b, 0x3f, 0x80, 0x3d, 0xfa, 0x18, 0x6a, 0x3e, 0x17, 0x48, 0x6f, 0xbd,
  0xee, 0x47, 0x17, 0xbe, 0x01, 0x4b, 0x3e, 0x3c, 0xdc, 0xf9, 0x5b, 0x3d,
  0x1d, 0x4b, 0x9a, 0x3d, 0x0e, 0x74, 0xab, 0xbd, 0x21, 0xca, 0xff, 0x3d,
  0x89, 0xbc, 0x58, 0xbe, 0x2b, 0x00, 0x08, 0xbe, 0x24, 0xec, 0x2b, 0x3d,
  0x42, 0x5c, 0xf7, 0xbc, 0x40, 0x1d, 0xb3, 0x3d, 0xd7, 0x98, 0x1b, 0x3d,
  0x4c, 0xbc, 0xcc, 0xbd, 0x11, 0x8b, 0xff, 0x3d, 0xbc, 0x2a, 0x9a, 0x3d,
  0xad, 0x62, 0xa4, 0x3e, 0xf9, 0xae, 0xcb, 0xbd, 0x0b, 0xf3, 0x72, 0xbb,
  0xfe, 0x49, 0xae, 0x3e, 0xb4, 0x89, 0x60, 0xbe, 0xa1, 0xc3, 0x6d, 0xbe,
  0x91, 0x50, 0x45, 0xbd, 0x98, 0x97, 0xd9, 0x3b, 0xc3, 0x24, 0x61, 0xbe,
  0x30, 0x15, 0x81, 0xbd, 0xe8, 0xc4, 0x94, 0xbc, 0xf0, 0xa8, 0x16, 0xbe,
  0xbe, 0x10, 0x21, 0x3d, 0x69, 0xf3, 0x97, 0x3d, 0xbe, 0xa8, 0x1c, 0x3e,
  0xf5, 0xb2, 0x98, 0x3d, 0x22, 0xfc, 0xa2, 0xbc, 0xc4, 0x61, 0x0a, 0xbe,
  0xf2, 0xaa, 0xb8, 0x3d, 0xf0, 0xed, 0xc2, 0x3e, 0x4f, 0xe6, 0xa3, 0xbd,
  0xeb, 0x94, 0x10, 0xbe, 0x7b, 0x6b, 0xe5, 0x3b, 0x57, 0x4c, 0xa0, 0xbd,
  0x5d, 0x0c, 0x14, 0xbe, 0x68, 0xd6, 0xcd, 0xbd, 0xa6, 0x58, 0x43, 0xbe,
  0x8d, 0x86, 0x65, 0x3d, 0x61, 0x86, 0x4a, 0xbd, 0x0d, 0x90, 0xb5, 0xbd,
  0xcb, 0xbb, 0x8f, 0x3e, 0xa8, 0x87, 0x25, 0x3e, 0x48, 0x38, 0xdc, 0x3c,
  0x39, 0xfc, 0x9d, 0xbd, 0x41, 0x52, 0x49, 0x3c, 0xaa, 0xe1, 0xb5, 0x3e,
  0x8b, 0x06, 0xd1, 0xbd, 0xca, 0xd8, 0xe9, 0xbd, 0x1e, 0x8e, 0xf4, 0x3c,
  0x41, 0x90, 0x35, 0xbd, 0xf0, 0x62, 0xdf, 0xbe, 0x14, 0x7c, 0x17, 0xbe,
  0x10, 0x83, 0x9d, 0xbd, 0x0a, 0x1c, 0xd4, 0xbd, 0xd3, 0x74, 0x46, 0x3d,
  0x56, 0x43, 0x00, 0x3e, 0xcc, 0xdd, 0x89, 0x3d, 0xb8, 0x8a, 0x4f, 0x3d,
  0x64, 0x18, 0xcd, 0xbe, 0x45, 0xdf, 0x41, 0xbe, 0xdc, 0x70, 0x39, 0xbd,
  0x56, 0xcf, 0x37, 0x3f, 0x28, 0x60, 0x5d, 0xbe, 0xf7, 0x4b, 0x0f, 0xbf,
  0x4d, 0x2d, 0x84, 0x3d, 0x3b, 0xf4, 0x4a, 0xbd, 0xf5, 0x4e, 0x43, 0xbd,
  0x7c, 0x8d, 0x8f, 0x3d, 0xf3, 0x09, 0x9c, 0x3e, 0xa9, 0x0c, 0xfb, 0xbd,
  0xa1, 0x23, 0xe5, 0xbb, 0xb0, 0x26, 0x98, 0x3e, 0x50, 0x9a, 0xf5, 0xbd,
  0xa1, 0xb7, 0xe5, 0x3d, 0x85, 0x2f, 0x98, 0xbd, 0xd0, 0xb6, 0x52, 0xbd,
  0x7b, 0x68, 0x9f, 0xbd, 0xf1, 0xb1, 0x69, 0x3f, 0x77, 0xbd, 0x0e, 0xbe,
  0xfc, 0x6f, 0x3d, 0xbe, 0x41, 0xe5, 0x3d, 0xbc, 0xc4, 0x56, 0x3e, 0x3e,
  0x74, 0x44, 0x18, 0xbd, 0xf1, 0xe0, 0xa8, 0x3c, 0x82, 0x0a, 0x49, 0x3e,
  0xd8, 0x44, 0x1c, 0x3f, 0xba, 0x14, 0xcc, 0xbd, 0x0f, 0x3c, 0x76, 0x3e,
  0x25, 0x7e, 0x8e, 0x3d, 0xa0, 0xf5, 0xc0, 0xbd, 0x58, 0xa5, 0x95, 0xbe,
  0xc0, 0x86, 0xa3, 0xbe, 0xb0, 0xb8, 0xc5, 0xbd, 0x6d, 0x67, 0x8d, 0x3f,
  0x34, 0xdb, 0x5b, 0x3e, 0xb0, 0xbe, 0x38, 0xbe, 0x17, 0xc7, 0x7c, 0xbe,
  0xfb, 0xea, 0xde, 0x3e, 0xa1, 0x21, 0x95, 0xbd, 0xfc, 0x02, 0x51, 0x3d,
  0x89, 0x42, 0xa2, 0x3e, 0x62, 0xfc, 0x87, 0x3f, 0xbb, 0x9e, 0xd5, 0x3d,
  0xf4, 0x52, 0x9d, 0x3e, 0x6f, 0x63, 0x6f, 0x3d, 0x19, 0xe7, 0xe9, 0xbd,
  0x00, 0x77, 0x8a, 0xbe, 0x9f, 0x53, 0x87, 0xbe, 0xcc, 0x18, 0x42, 0x3e,
  0xae, 0x5c, 0x88, 0x3f, 0xa3, 0x8e, 0x01, 0xbe, 0x03, 0xdb, 0xff, 0xbd,
  0x08, 0x85, 0x1a, 0xbe, 0x62, 0x06, 0x2d, 0x3e, 0xb0, 0xc1, 0x95, 0x3b,
  0xf2, 0x00, 0x47, 0xbc, 0x40, 0x28, 0x28, 0x3f, 0xa5, 0xda, 0x86, 0x3f,
  0x8c, 0x71, 0xa1, 0x3c, 0x74, 0xaa, 0x8a, 0x3e, 0x5b, 0x1a, 0xe8, 0xbd,
  0x16, 0xbc, 0x0d, 0xbe, 0xd4, 0x50, 0xb5, 0xbe, 0x7d, 0x04, 0x3c, 0xbe,
  0x22, 0x2a, 0x66, 0x3e, 0x14, 0x1a, 0x84, 0x3f, 0x8d, 0x28, 0x34, 0xbb,
  0x05, 0x2e, 0x5c, 0xbe, 0xaf, 0x06, 0xb8, 0xbd, 0x18, 0xfe, 0x14, 0x3d,
  0x87, 0xf6, 0x11, 0xbc, 0x58, 0xca, 0xd8, 0x3c, 0x93, 0xbd, 0x32, 0x3f,
  0x74, 0x43, 0x30, 0x3f, 0xb0, 0x41, 0x28, 0x3e, 0x32, 0x01, 0x3d, 0x3e,
  0xd6, 0x30, 0xf9, 0xbd, 0xd2, 0x13, 0x92, 0x3a, 0x97, 0x63, 0x71, 0xbe,
  0x9d, 0x3b, 0x92, 0xbc, 0xd1, 0x64, 0x86, 0xbe, 0x0f, 0xb1, 0x99, 0x3f,
  0x92, 0x71, 0x84, 0xbd, 0x62, 0x8c, 0xe9, 0xbe, 0x0b, 0xdd, 0x0e, 0xbe,
  0xc0, 0x94, 0x8a, 0x3e, 0x0e, 0xd4, 0x17, 0xbd, 0x6d, 0x92, 0xaa, 0x3d,
  0xde, 0x28, 0xd5, 0x3e, 0x5a, 0x23, 0x72, 0x3e, 0xd5, 0x63, 0x02, 0xbe,
  0x5e, 0xa2, 0xe4, 0xbc, 0x3b, 0x5c, 0x96, 0xbd, 0x88, 0x78, 0x0c, 0x3e,
  0x4a, 0xfc, 0x8a, 0xbe, 0x53, 0x49, 0xb8, 0xbd, 0xa7, 0xd9, 0xc8, 0xbc,
  0x36, 0xcd, 0x01, 0x3e, 0xf5, 0xc0, 0x03, 0x3c, 0xbc, 0x98, 0x8a, 0xbe,
  0xfb, 0x5a, 0x45, 0xbe, 0xd3, 0xd0, 0x1e, 0xbb, 0x48, 0xd7, 0x5e, 0x3c,
  0x36, 0xe3, 0x57, 0xbe, 0x61, 0xc8, 0x21, 0xbd, 0xf1, 0xc3, 0x9c, 0xbe,
  0xaf, 0x60, 0x35, 0x3e, 0x76, 0xf9, 0x22, 0x3e, 0x6c, 0xc0, 0xa7, 0x3d,
  0x55, 0x72, 0x36, 0xbe, 0x1d, 0x85, 0x93, 0xbd, 0x32, 0xf5, 0x5d, 0xbf,
  0x9f, 0x5c, 0x24, 0xbf, 0x75, 0x40, 0x0a, 0xbe, 0xf9, 0x81, 0xc2, 0xbc,
  0xde, 0x7f, 0x15, 0xbe, 0x99, 0x25, 0x5f, 0x3c, 0xe7, 0xac, 0x8e, 0xbd,
  0xc8, 0x3c, 0x91, 0xbd, 0x30, 0x81, 0xe1, 0xbd, 0xa0, 0xc2, 0xba, 0xbd,
  0xe8, 0xa4, 0x97, 0xbe, 0x3e, 0x9c, 0x27, 0x3e, 0xa5, 0xbf, 0x20, 0xbf,
  0x86, 0xcd, 0xe7, 0xbd, 0x4d, 0x06, 0x43, 0x3d, 0xdc, 0xc9, 0x1b, 0xbe,
  0xf5, 0xe9, 0x43, 0xbf, 0x00, 0x19, 0x53, 0xbf, 0x18, 0xb2, 0x87, 0xbe,
  0xb0, 0x9c, 0x00, 0xbe, 0xaa, 0x4e, 0xdd, 0x3c, 0xb7, 0xe6, 0x13, 0xbd,
  0x0b, 0xda, 0x20, 0xbf, 0x81, 0x43, 0xf2, 0xbd, 0x96, 0xf1, 0xad, 0xbe,
  0xbb, 0xe5, 0xaa, 0xbe, 0x48, 0x5d, 0x13, 0xbe, 0x42, 0xad, 0x83, 0xbe,
  0xee, 0xc3, 0x57, 0x3d, 0x49, 0x6f, 0xc0, 0xbd, 0xbe, 0xeb, 0x34, 0xbe,
  0xbb, 0xf1, 0x94, 0x3c, 0x11, 0xef, 0x63, 0xbf, 0xe8, 0x97, 0x81, 0xbf,
  0xa6, 0x51, 0x55, 0xbe, 0x6c, 0xf3, 0x9a, 0x3d, 0xcd, 0x93, 0xcd, 0xbc,
  0x24, 0x92, 0x4f, 0xbc, 0x2e, 0xbd, 0x0a, 0xbf, 0x0f, 0xb1, 0xae, 0xbd,
  0x4a, 0x18, 0x70, 0xbe, 0x14, 0x65, 0x44, 0xbd, 0xbd, 0xba, 0x08, 0xbe,
  0xd0, 0xd4, 0x2d, 0xbe, 0xa6, 0x0d, 0x8d, 0xbc, 0x68, 0x99, 0xf0, 0xbc,
  0x66, 0x17, 0x5c, 0xbe, 0x06, 0xf4, 0xc5, 0xbe, 0xa6, 0xa7, 0xf3, 0xbe,
  0xdf, 0x42, 0x80, 0xbf, 0x32, 0x35, 0x2a, 0xbe, 0xa0, 0x07, 0xbc, 0x3d,
  0x8c, 0xac, 0x4d, 0xbd, 0x5d, 0xad, 0xfd, 0xbb, 0x85, 0x1b, 0x9f, 0xbe,
  0x63, 0x47, 0x6b, 0xbd, 0xec, 0x05, 0x1e, 0xbf, 0x6a, 0x3e, 0x9a, 0xbe,
  0x10, 0x3e, 0xb4, 0xbd, 0x4a, 0x27, 0x96, 0x3d, 0x67, 0x5b, 0x78, 0xbe,
  0xec, 0x9e, 0xb7, 0xbe, 0x6d, 0x70, 0x06, 0x3d, 0x5a, 0x5a, 0x10, 0x3d,
  0xf5, 0x19, 0xb1, 0xbe, 0xda, 0xb0, 0x65, 0xbf, 0xb6, 0xa6, 0xb5, 0xbd,
  0x5a, 0x71, 0x0d, 0x3d, 0x39, 0x0b, 0xb1, 0xbc, 0xc6, 0x40, 0x51, 0xbc,
  0xdd, 0xf2, 0x6e, 0xbd, 0xc4, 0x00, 0x72, 0xbd, 0x36, 0x9d, 0x18, 0x3e,
  0xae, 0xb0, 0x35, 0xbe, 0x34, 0xbd, 0x09, 0x3f, 0x0a, 0x6a, 0x1f, 0x3e,
  0x61, 0xc0, 0x30, 0xbd, 0x93, 0xd9, 0x91, 0xbd, 0x08, 0x9c, 0xbd, 0x3c,
  0xd6, 0xcd, 0x21, 0x3d, 0xa5, 0xe5, 0x5d, 0xbe, 0x04, 0xde, 0x3c, 0x3e,
  0x28, 0x68, 0xd3, 0xbc, 0x73, 0x45, 0xb9, 0x3d, 0x89, 0x06, 0x70, 0x3d,
  0xe6, 0xd8, 0x35, 0xbe, 0x95, 0x20, 0xf9, 0xbc, 0x01, 0xb1, 0x10, 0xbd,
  0x77, 0x5d, 0x91, 0x3d, 0xe3, 0x02, 0x8e, 0xbe, 0xd7, 0x95, 0xaf, 0x3e,
  0x28, 0x75, 0x27, 0xbe, 0x79, 0x57, 0xfe, 0xbd, 0xb1, 0x94, 0x15, 0xbe,
  0x36, 0x55, 0x92, 0xbe, 0x0c, 0x3d, 0x8e, 0x3d, 0xab, 0x69, 0xf3, 0xbb,
  0xaa, 0x05, 0xa4, 0x3d, 0x08, 0x07, 0xea, 0x3c, 0xac, 0x96, 0xc3, 0x3d,
  0x12, 0x11, 0x74, 0xbd, 0x98, 0xb3, 0x25, 0xbe, 0x0b, 0xa3, 0xb4, 0x3d,
  0x3a, 0x67, 0x5a, 0x3e, 0x62, 0xe3, 0x57, 0x3e, 0xac, 0xf9, 0x1c, 0xbe,
  0x4c, 0x6a, 0xaa, 0x3d, 0x48, 0xa7, 0xaf, 0x3d, 0x76, 0x73, 0x04, 0x3e,
  0x39, 0x2c, 0x00, 0x3d, 0xfd, 0x3b, 0xc3, 0xbd, 0xd5, 0x8a, 0xe8, 0xbe,
  0x30, 0x08, 0xaf, 0xbe, 0xf7, 0x73, 0xd9, 0xbd, 0xa8, 0xde, 0x48, 0xbd,
  0xb4, 0xc6, 0x05, 0xbf, 0x58, 0xdf, 0x07, 0xbe, 0x20, 0xab, 0x72, 0x3d,
  0x8f, 0xb1, 0xe4, 0xba, 0x72, 0x42, 0x6e, 0x3e, 0x2b, 0x4e, 0x0f, 0x3e,
  0x23, 0xd7, 0xc6, 0xbe, 0xd6, 0xef, 0x98, 0xbe, 0x1c, 0x84, 0x67, 0xbf,
  0x48, 0x8b, 0x5a, 0xbe, 0xb8, 0xce, 0xa5, 0x3e, 0x86, 0x83, 0x8e, 0x3e,
  0x67, 0x51, 0x2a, 0x3d, 0x5f, 0x98, 0x74, 0xbe, 0x4a, 0x9f, 0x83, 0x3d,
  0xe4, 0x5e, 0x70, 0x3e, 0x06, 0xc7, 0xb9, 0xbe, 0x5a, 0x5e, 0x94, 0xbd,
  0x25, 0x8a, 0xbb, 0xbc, 0x9a, 0x0f, 0xa4, 0xbd, 0x1f, 0x5e, 0xca, 0x3d,
  0x9c, 0x7a, 0xe6, 0xbe, 0xeb, 0xeb, 0xfc, 0xbe, 0x9d, 0x0f, 0x18, 0x3d,
  0x2e, 0x90, 0x96, 0xbe, 0x8e, 0x62, 0xc9, 0x3e, 0xee, 0x11, 0x02, 0x3e,
  0x49, 0x85, 0xcd, 0x3d, 0xb1, 0x4b, 0x42, 0x3e, 0xb9, 0xc9, 0xd0, 0xbb,
  0xe3, 0x76, 0x08, 0x3e, 0x7c, 0xba, 0xec, 0x3e, 0xab, 0xc5, 0x2e, 0xba,
  0x84, 0xcb, 0x77, 0xbe, 0xfd, 0x2b, 0xce, 0x3c, 0xb4, 0x62, 0x8b, 0xbe,
  0x07, 0xbb, 0x8c, 0x3c, 0x39, 0x35, 0x63, 0xbd, 0xe5, 0x7e, 0xef, 0xbd,
  0x97, 0x24, 0x03, 0x3e, 0x9d, 0x97, 0xc5, 0x3d, 0xa0, 0x83, 0x45, 0x3e,
  0x99, 0xad, 0x90, 0x3e, 0xe7, 0x29, 0x0b, 0x3e, 0x84, 0xdf, 0x83, 0x3e,
  0x15, 0x66, 0xd4, 0x3d, 0xef, 0x4c, 0x69, 0xbd, 0x50, 0x7d, 0x93, 0x3e,
  0xfc, 0x2f, 0xa7, 0xbc, 0x60, 0x65, 0x9c, 0xbe, 0xcc, 0x27, 0x8c, 0x3c,
  0x6c, 0x8b, 0x4c, 0xbe, 0x92, 0xa6, 0xc0, 0xbe, 0xd1, 0x03, 0xda, 0xbd,
  0x49, 0xc7, 0x95, 0xbd, 0xa1, 0x7e, 0x58, 0x3d, 0xcd, 0x91, 0x26, 0x3c,
  0x80, 0xd6, 0xfe, 0x3d, 0xad, 0xe0, 0x7b, 0x3e, 0x33, 0x15, 0x41, 0x3e,
  0x36, 0x6f, 0x07, 0x3e, 0x7b, 0x3e, 0xc8, 0x3d, 0xcb, 0xab, 0xf2, 0x3c,
  0xd9, 0xf0, 0x72, 0x3e, 0x09, 0x30, 0xc6, 0xbd, 0x0a, 0x22, 0x40, 0xbe,
  0xe2, 0xda, 0x4b, 0x3c, 0xfc, 0xbe, 0x6c, 0x3c, 0x38, 0x37, 0xb4, 0xbe,
  0x57, 0x69, 0x16, 0x3e, 0x61, 0x27, 0x37, 0xbe, 0x02, 0x54, 0x67, 0x3e,
  0xa5, 0xfb, 0xec, 0xbd, 0xcd, 0x57, 0x08, 0x3e, 0x24, 0x59, 0xe3, 0x3e,
  0x58, 0x3b, 0xcf, 0x3d, 0x14, 0x55, 0x99, 0x3e, 0x77, 0x59, 0x8b, 0x3d,
  0x72, 0x33, 0x05, 0x3e, 0xf6, 0x6f, 0x49, 0x3e, 0xe6, 0x80, 0xb2, 0xbe,
  0x39, 0x8b, 0x88, 0xbe, 0x9d, 0x3f, 0x99, 0xbc, 0x50, 0xda, 0xbb, 0xbe,
  0x0d, 0x82, 0xa3, 0xbe, 0xeb, 0x89, 0x51, 0xbe, 0xba, 0xf4, 0x92, 0xbd,
  0x3f, 0xd0, 0x76, 0xbd, 0x7a, 0x73, 0x98, 0xbe, 0x4e, 0x9c, 0xe8, 0xbd,
  0x3b, 0xdd, 0xf8, 0x3e, 0x34, 0x25, 0xcd, 0x3d, 0xb5, 0xd1, 0x21, 0x3c,
  0xdf, 0xed, 0xad, 0x3d, 0x51, 0x3f, 0x06, 0x3e, 0x97, 0xe8, 0xbd, 0x3e,
  0xed, 0x70, 0x47, 0xbe, 0x30, 0x7e, 0x26, 0xbe, 0x32, 0x8e, 0xce, 0xbc,
  0x13, 0x28, 0xa1, 0xbd, 0x29, 0xc2, 0x20, 0xbf, 0x33, 0xbb, 0x4c, 0xbe,
  0x64, 0xe8, 0x3a, 0xbe, 0x15, 0x79, 0xed, 0xbd, 0xb9, 0xf4, 0x0b, 0xbe,
  0xf8, 0xbd, 0x1e, 0x3e, 0x7c, 0xfd, 0x85, 0x3e, 0xeb, 0xb9, 0xe2, 0x3d,
  0xbb, 0xbd, 0x07, 0xbe, 0x82, 0x82, 0xfa, 0xbd, 0x9b, 0x3f, 0xa2, 0xbd,
  0x4f, 0x1d, 0x75, 0x3f, 0xa4, 0xa4, 0x7e, 0xbe, 0x34, 0x97, 0x51, 0xbe,
  0x48, 0x28, 0xc4, 0x3c, 0xb3, 0x2d, 0x8b, 0x3d, 0xe4, 0xd3, 0xd3, 0x3d,
  0x93, 0x2c, 0x40, 0x3d, 0xb5, 0x6d, 0x62, 0x3e, 0xe9, 0x3d, 0xd0, 0xbe,
  0x58, 0x2b, 0x38, 0xbe, 0xc6, 0xb0, 0x63, 0x3e, 0xd1, 0xaa, 0xd6, 0x3e,
  0x13, 0xbc, 0x84, 0x3e, 0xa9, 0xb2, 0x06, 0x3e, 0x8b, 0x14, 0x17, 0xbd,
  0xe7, 0xd0, 0x28, 0xbd, 0xe3, 0x71, 0x5f, 0x3f, 0x0d, 0xee, 0x94, 0xbe,
  0x09, 0xc5, 0x17, 0xbe, 0xaf, 0xbd, 0x08, 0xbd, 0x4d, 0x2d, 0x03, 0x3e,
  0xb1, 0xdd, 0x0d, 0x3c, 0x19, 0xfc, 0x5c, 0xbe, 0x37, 0xbc, 0x04, 0x3d,
  0xb4, 0x72, 0x5c, 0x3e, 0x91, 0xe9, 0xf5, 0xbd, 0x6d, 0x85, 0x00, 0xbe,
  0x45, 0x43, 0x4d, 0xbd, 0xaa, 0x37, 0xc6, 0x3d, 0xe1, 0x54, 0x32, 0x3e,
  0x4c, 0x9d, 0x44, 0x3d, 0x1f, 0x24, 0x22, 0xbd, 0x44, 0x35, 0x65, 0x3f,
  0x1b, 0x13, 0x37, 0xbe, 0xf1, 0xcb, 0x4a, 0x3d, 0x7b, 0xb9, 0x65, 0xbc,
  0x38, 0xec, 0x93, 0x3e, 0x18, 0x42, 0x21, 0x3d, 0xf2, 0xf2, 0x6c, 0x3d,
  0x20, 0xfa, 0x80, 0x3d, 0xa4, 0x49, 0xf0, 0x3e, 0x85, 0x1d, 0x1e, 0xbd,
  0x24, 0x39, 0xef, 0x3e, 0xbd, 0x22, 0x41, 0xbd, 0x55, 0xb3, 0x10, 0x3c,
  0xd0, 0xfd, 0x77, 0x3d, 0x45, 0xa8, 0x10, 0x3d, 0xbf, 0x05, 0x1a, 0x3e,
  0xea, 0x90, 0x52, 0x3f, 0xea, 0x4d, 0x9c, 0xbb, 0xb8, 0xed, 0x53, 0x3b,
  0xfc, 0x1f, 0x4e, 0xbc, 0x89, 0xcf, 0x97, 0x3e, 0x35, 0x9b, 0x7b, 0x3d,
  0xbf, 0xeb, 0x8c, 0x3d, 0x7c, 0x4b, 0x09, 0x3f, 0x4d, 0xf5, 0x0b, 0x3f,
  0xf6, 0xb5, 0xd8, 0xbd, 0xc7, 0xb3, 0x0e, 0x3f, 0x05, 0x71, 0x64, 0x3d,
  0x35, 0x13, 0x71, 0x3d, 0x5c, 0x35, 0x1b, 0xbe, 0xc3, 0x68, 0x5e, 0x3d,
  0xf1, 0x9a, 0x51, 0x3d, 0xaa, 0x1e, 0x4b, 0x3f, 0x44, 0x21, 0x80, 0xbe,
  0xc7, 0x42, 0x22, 0x3d, 0xd7, 0x76, 0x78, 0x3c, 0xdc, 0x9b, 0x0a, 0x3e,
  0x16, 0x77, 0x91, 0x3d, 0xd1, 0x76, 0x07, 0xbe, 0x36, 0x27, 0xeb, 0x3e,
  0x52, 0xa9, 0xc8, 0xbe, 0x8c, 0xc7, 0x12, 0xbe, 0x4c, 0xc6, 0x24, 0x3f,
  0x4c, 0x9a, 0x6f, 0x3e, 0xb9, 0x57, 0x18, 0x3e, 0x12, 0x8b, 0xdd, 0xbd,
  0xa7, 0x3e, 0x70, 0x3c, 0x9b, 0x43, 0x6e, 0x3d, 0x95, 0x0c, 0x82, 0x3f,
  0xca, 0x85, 0xd8, 0xbd, 0x95, 0x58, 0x9e, 0xbe, 0x70, 0x88, 0xab, 0xbc,
  0x2c, 0x2c, 0x8d, 0x3c, 0x41, 0xa2, 0xd4, 0xbb, 0x91, 0x09, 0x56, 0xbe,
  0x72, 0xdb, 0x98, 0x3e, 0x35, 0x68, 0x20, 0xbe, 0x54, 0x7a, 0x5b, 0xbd,
  0x3d, 0xe0, 0xa2, 0x3e, 0x4f, 0x78, 0x60, 0x3d, 0x34, 0x32, 0x16, 0x3e,
  0x45, 0xa3, 0xd9, 0xbc, 0x6e, 0xae, 0x72, 0x3b, 0x00, 0x34, 0xc4, 0x3d,
  0x88, 0x58, 0x75, 0x3e, 0x1e, 0x58, 0x3b, 0xbe, 0x0f, 0xf2, 0x57, 0xbd,
  0x1f, 0x33, 0x9d, 0xbc, 0x02, 0x9d, 0xa7, 0xbc, 0x2c, 0x9d, 0xd1, 0xbb,
  0x14, 0x27, 0x47, 0x3d, 0xd9, 0xff, 0x8e, 0x3d, 0xc5, 0xd2, 0xaf, 0xbd,
  0x80, 0xd0, 0x1f, 0x3d, 0x19, 0x90, 0x6c, 0x3e, 0xbe, 0x07, 0x77, 0x39,
  0xae, 0x43, 0x0f, 0x3d, 0x84, 0xe5, 0xd9, 0x3d, 0xb9, 0x13, 0xaa, 0x3c,
  0xce, 0xbe, 0x97, 0xbe, 0xad, 0x6b, 0xad, 0xbd, 0x55, 0x4a, 0x2e, 0xbc,
  0xc2, 0x7c, 0xb6, 0xbc, 0x96, 0x10, 0x57, 0x3d, 0xb5, 0x74, 0xfd, 0xbb,
  0x38, 0xf8, 0x76, 0x3a, 0xd8, 0x73, 0x75, 0xbe, 0xf0, 0x1c, 0xa5, 0xbe,
  0x06, 0x9c, 0x17, 0xbe, 0x92, 0x67, 0xf5, 0xbd, 0x20, 0x8a, 0xae, 0xbe,
  0xd4, 0xdb, 0xad, 0x3e, 0xc8, 0x73, 0x8a, 0x3d, 0x50, 0x15, 0x6e, 0x3e,
  0x01, 0x63, 0x00, 0x3e, 0xca, 0x34, 0x1b, 0x3d, 0x4e, 0x13, 0x20, 0x3e,
  0xc2, 0x96, 0x61, 0x3d, 0x8d, 0x44, 0x20, 0x3e, 0x3c, 0x62, 0xb8, 0x3d,
  0xfb, 0xb7, 0x8b, 0xbe, 0xf7, 0x4f, 0xd0, 0x3c, 0x23, 0xca, 0xb5, 0xbe,
  0x57, 0x37, 0x10, 0xbf, 0xdd, 0x38, 0xa3, 0x3c, 0x23, 0x9a, 0xcc, 0xbd,
  0x87, 0xc5, 0x70, 0xbe, 0xad, 0x0f, 0xe5, 0x3e, 0x77, 0xb6, 0x67, 0xbc,
  0xf7, 0x58, 0x97, 0x3e, 0x32, 0x1e, 0xfb, 0x3d, 0x51, 0x3f, 0xfd, 0x3d,
  0x1c, 0x3b, 0x2c, 0xbd, 0xa9, 0x1e, 0x97, 0xbd, 0x65, 0x66, 0x6f, 0x3d,
  0xec, 0x13, 0x08, 0x3e, 0xc3, 0x6f, 0x50, 0xbe, 0xf8, 0x2f, 0x52, 0x3d,
  0xa7, 0xc8, 0x04, 0x3d, 0xc6, 0x79, 0x8b, 0xbe, 0x57, 0x50, 0x68, 0x3e,
  0xf4, 0x81, 0xc0, 0x3c, 0x3b, 0x93, 0x35, 0x3d, 0xda, 0x09, 0x06, 0x3e,
  0x95, 0xcf, 0xe5, 0x3d, 0xa4, 0x20, 0xc4, 0x3e, 0xf4, 0x68, 0xcb, 0x3c,
  0x4e, 0x55, 0xd4, 0x3d, 0x11, 0x88, 0x09, 0xbe, 0xff, 0x9a, 0x04, 0x3e,
  0x19, 0xcc, 0xaf, 0x3c, 0x83, 0x04, 0x54, 0xbe, 0xd4, 0x9e, 0x05, 0xbe,
  0xed, 0x46, 0x67, 0x3d, 0x0c, 0xda, 0x45, 0x3d, 0x9e, 0xf6, 0xc6, 0xbc,
  0x9b, 0xb8, 0x10, 0x3e, 0x55, 0xb8, 0xac, 0x3c, 0x7a, 0x3b, 0x7e, 0xbd,
  0x75, 0xba, 0x77, 0x3e, 0x39, 0xbf, 0xcc, 0xbd, 0x36, 0x27, 0x2d, 0x3e,
  0x89, 0x62, 0x20, 0x3c, 0x96, 0x67, 0xd1, 0xbc, 0xfd, 0x6f, 0x4e, 0xbe,
  0xd2, 0xb8, 0x1a, 0xbe, 0xdb, 0x02, 0x00, 0xbd, 0x35, 0xf1, 0x91, 0xbe,
  0x14, 0xe7, 0xa6, 0xbe, 0x91, 0x45, 0x71, 0x3d, 0xc8, 0x97, 0x97, 0xbe,
  0xe3, 0x00, 0x3b, 0xbe, 0x77, 0x78, 0x0f, 0xbe, 0xf4, 0xc9, 0x26, 0x3d,
  0x56, 0x21, 0xf8, 0xbd, 0xa9, 0x44, 0x8b, 0x3d, 0xe6, 0xde, 0xf6, 0x3d,
  0x50, 0x69, 0x38, 0x3e, 0xe5, 0x68, 0x93, 0x3c, 0xc2, 0x17, 0x3d, 0xbd,
  0xef, 0x91, 0x03, 0xbe, 0xd9, 0xdd, 0xb3, 0xbd, 0x62, 0x2d, 0x1d, 0x3c,
  0x58, 0x9b, 0xa1, 0xbe, 0x63, 0x13, 0xbc, 0xbe, 0xf6, 0xb5, 0xa6, 0x3d,
  0x29, 0xeb, 0x9c, 0xbe, 0x0f, 0x3c, 0xed, 0xbd, 0x22, 0x36, 0xd1, 0xbd,
  0x3f, 0x56, 0x8a, 0xbc, 0xb0, 0xea, 0xec, 0xbe, 0x36, 0xc8, 0xdd, 0x3d,
  0xa3, 0xc3, 0x90, 0x3b, 0xf6, 0x52, 0x13, 0x3c, 0x97, 0x13, 0x24, 0xbd,
  0xf8, 0x64, 0x4e, 0x3d, 0xad, 0x51, 0x08, 0x3e, 0x1b, 0x82, 0xb8, 0xbd,
  0x72, 0x51, 0xda, 0x3d, 0x93, 0x22, 0x05, 0xbf, 0xbb, 0xc9, 0x16, 0xbc,
  0xd4, 0xba, 0x0b, 0xbc, 0xb3, 0x8f, 0x13, 0xbe, 0x29, 0x75, 0x0b, 0xbe,
  0xb1, 0xbe, 0x85, 0xbe, 0x51, 0xe1, 0x10, 0x3e, 0x3a, 0x2a, 0x03, 0xbe,
  0xa0, 0xb0, 0x75, 0x3e, 0x58, 0xd2, 0xa9, 0xbe, 0xbb, 0x98, 0x92, 0x3d,
  0xb5, 0x99, 0x13, 0xbc, 0x2b, 0xd6, 0x57, 0x3e, 0xbb, 0xfd, 0x3e, 0x3f,
  0x27, 0xa5, 0xd2, 0xbd, 0xc1, 0xb1, 0xa9, 0x3d, 0x5a, 0xe6, 0x99, 0xbd,
  0xe3, 0x0c, 0x32, 0xbc, 0xd8, 0xc8, 0x5d, 0x3d, 0x59, 0xaa, 0x11, 0x3e,
  0x77, 0xa4, 0x03, 0x3e, 0x38, 0xbe, 0x01, 0x3e, 0xbc, 0x29, 0x26, 0x3c,
  0xd6, 0x32, 0xee, 0x3d, 0xf1, 0x3d, 0xad, 0xbe, 0x10, 0x53, 0x92, 0x3d,
  0x94, 0xfb, 0x8d, 0xbd, 0x08, 0x39, 0x36, 0x3c, 0x8a, 0xe0, 0x9b, 0x3d,
  0xe6, 0x3b, 0x0c, 0x3f, 0x6c, 0x7c, 0x4b, 0xbd, 0xdf, 0xd2, 0x49, 0x3d,
  0x47, 0xb9, 0xa7, 0x3c, 0xcd, 0xba, 0x84, 0x3d, 0x42, 0xe5, 0xd9, 0xbc,
  0xf7, 0xcf, 0x1b, 0x3e, 0x9c, 0xaa, 0xb4, 0x3d, 0x4a, 0xbd, 0xa2, 0x3e,
  0xb5, 0x16, 0x10, 0xbe, 0x7b, 0xea, 0xb2, 0x3e, 0x61, 0x64, 0x3f, 0xbe,
  0x54, 0x9f, 0x23, 0xbe, 0x81, 0x95, 0x8d, 0xbe, 0x58, 0x0c, 0x1e, 0xbe,
  0x45, 0xcf, 0x0d, 0xbe, 0xc2, 0x8f, 0xc0, 0x3e, 0x09, 0xda, 0x47, 0x3d,
  0xe5, 0x35, 0xd9, 0xbc, 0xdf, 0xe0, 0x3b, 0xbd, 0x4a, 0x55, 0xcd, 0x3d,
  0xcf, 0xf1, 0xb0, 0xbc, 0x4a, 0x07, 0xbf, 0x3c, 0x93, 0x91, 0x62, 0x3e,
  0xe6, 0xfe, 0x75, 0xbd, 0x0d, 0xdc, 0x34, 0x3d, 0x28, 0xe9, 0x5f, 0x3e,
  0x42, 0xb6, 0x36, 0xbd, 0x5b, 0x39, 0xed, 0xbc, 0x53, 0xb4, 0x98, 0xbe,
  0xa8, 0xa1, 0x18, 0xbe, 0x28, 0x48, 0x1f, 0xbd, 0xd7, 0x31, 0x50, 0x3e,
  0x01, 0x11, 0x01, 0x3e, 0x7d, 0x1d, 0x29, 0xbd, 0xfb, 0xa2, 0x78, 0x3a,
  0x7b, 0xd7, 0x73, 0x3d, 0x48, 0xec, 0x83, 0x3a, 0xf8, 0x30, 0xac, 0xbd,
  0xbd, 0xa9, 0x22, 0x3c, 0x39, 0xd9, 0x8e, 0x3e, 0x00, 0xbb, 0xb7, 0x3d,
  0xe9, 0x83, 0x91, 0xbc, 0xd5, 0xa1, 0x7c, 0xbc, 0x9e, 0x03, 0x86, 0xbd,
  0x4b, 0x5a, 0x5b, 0xbd, 0x23, 0x8e, 0x57, 0xbe, 0x5c, 0xdc, 0xc7, 0xbb,
  0xac, 0x3c, 0x1b, 0x3f, 0x50, 0x39, 0x14, 0x3d, 0xa7, 0x47, 0x25, 0xbd,
  0xa0, 0x01, 0xbd, 0xbd, 0xe3, 0xd3, 0xaf, 0x3d, 0xf2, 0x56, 0x85, 0xbc,
  0x5b, 0x54, 0x34, 0x3e, 0x74, 0xda, 0xe9, 0x3d, 0x25, 0x26, 0x0b, 0x3f,
  0x92, 0x81, 0xf1, 0xbc, 0x86, 0xe7, 0x1c, 0x3e, 0x0e, 0xe8, 0x7a, 0xbe,
  0xb5, 0x4c, 0xa0, 0xbd, 0xc8, 0xd5, 0x0f, 0x3d, 0x37, 0xcf, 0x9b, 0xbd,
  0x11, 0x54, 0xf0, 0x3d, 0xa8, 0xc0, 0xc5, 0x3e, 0x8f, 0xae, 0xd5, 0x3c,
  0x33, 0xd3, 0x20, 0x3d, 0x93, 0x20, 0x37, 0xbe, 0xa4, 0xfc, 0x6d, 0x3e,
  0x28, 0x54, 0x0d, 0xba, 0x59, 0xfb, 0x3a, 0x3e, 0x94, 0xa7, 0x8f, 0x3d,
  0x99, 0x68, 0x0e, 0x3e, 0x1d, 0xcc, 0xe0, 0xbd, 0x54, 0xce, 0x95, 0x3d,
  0xce, 0x6f, 0x1c, 0xbe, 0xf7, 0xc2, 0xad, 0x3c, 0xd8, 0xe8, 0x80, 0xbc,
  0xe2, 0x03, 0x92, 0x3b, 0xf1, 0xee, 0x84, 0xbc, 0x93, 0x17, 0xf8, 0xbd,
  0xe0, 0x97, 0x1b, 0xbd, 0x9c, 0x3b, 0xbc, 0xba, 0xa3, 0x87, 0x1c, 0xbe,
  0x03, 0x3b, 0xe9, 0xbb, 0x15, 0x3d, 0x68, 0xbb, 0x3b, 0x7d, 0xc6, 0x3d,
  0x68, 0xce, 0x9f, 0x3d, 0x16, 0xc3, 0x87, 0xbc, 0xe6, 0xdc, 0x68, 0x3d,
  0x80, 0x32, 0x9d, 0xbd, 0x1d, 0x58, 0x73, 0x3c, 0xad, 0xc0, 0x6e, 0xbd,
  0xc1, 0x22, 0x85, 0x3d, 0x6a, 0xf6, 0xdb, 0xbc, 0x4f, 0xdc, 0x15, 0xbe,
  0x2a, 0x70, 0xfb, 0x3d, 0x43, 0xf1, 0xaf, 0xbd, 0x99, 0x81, 0x3c, 0x3d,
  0x49, 0xc3, 0xe3, 0xbd, 0xb5, 0x10, 0x62, 0x3d, 0x12, 0xd8, 0x56, 0x3d,
  0x4d, 0xb2, 0x49, 0xbd, 0x6e, 0xf0, 0xd7, 0xbe, 0x70, 0x5c, 0xcc, 0xbd,
  0x00, 0x03, 0xa8, 0xbe, 0xe9, 0xc9, 0x0b, 0xbf, 0x2b, 0x1d, 0xf5, 0x3e,
  0x7b, 0x69, 0x1d, 0x3e, 0xdf, 0xac, 0x0e, 0x3e, 0x21, 0x90, 0xf7, 0xbb,
  0xab, 0x60, 0x2e, 0xbc, 0x7f, 0x1c, 0x7f, 0x3e, 0x02, 0xd5, 0x9b, 0xbd,
  0xe8, 0xb9, 0x8c, 0x3d, 0x05, 0xdb, 0xfb, 0xbd, 0x1e, 0x3c, 0x53, 0xbe,
  0xa4, 0xeb, 0x5b, 0x3d, 0x89, 0x34, 0x9e, 0xbe, 0xf4, 0x05, 0x10, 0xbf,
  0xfe, 0x4e, 0xb8, 0xbe, 0x27, 0x42, 0x1c, 0xbe, 0x4e, 0x81, 0xc6, 0xbe,
  0xc2, 0x7e, 0xbf, 0x3d, 0x80, 0xdf, 0x71, 0xbe, 0xfa, 0xb3, 0x71, 0x3e,
  0x41, 0xbb, 0x39, 0x3d, 0xc2, 0xa1, 0x08, 0x3e, 0x19, 0x42, 0x6f, 0x3d,
  0xf0, 0xc1, 0xbb, 0x3d, 0x5d, 0xef, 0xa3, 0xbc, 0xe0, 0x90, 0xba, 0xbd,
  0x5f, 0x21, 0x35, 0xbe, 0xbf, 0x0f, 0xb0, 0x3d, 0x28, 0x8f, 0xe2, 0xbd,
  0x2e, 0xed, 0xfd, 0xbe, 0xc3, 0x87, 0x61, 0xbe, 0x0f, 0xa5, 0x7e, 0xbd,
  0x88, 0x5a, 0xd1, 0xbd, 0x34, 0x5f, 0xc4, 0x3e, 0xf6, 0xcb, 0x59, 0x3c,
  0xc7, 0x78, 0x95, 0x3e, 0xcf, 0x23, 0x59, 0x3d, 0xd1, 0xd4, 0xe4, 0xbc,
  0x1d, 0x72, 0x01, 0x3e, 0x98, 0xe9, 0xbb, 0x3d, 0x67, 0x38, 0xd5, 0x3c,
  0x85, 0x29, 0xfa, 0xbd, 0xc7, 0x60, 0xa1, 0xbd, 0xb1, 0xcb, 0x74, 0x3d,
  0xb9, 0x91, 0x70, 0xbc, 0xaf, 0xf3, 0x31, 0xbc, 0x02, 0xf0, 0xb4, 0xbd,
  0x50, 0x41, 0x29, 0x3e, 0x3e, 0xb2, 0x68, 0xbe, 0xb9, 0xcf, 0x0f, 0x3d,
  0xb3, 0xb3, 0x89, 0x3e, 0x8c, 0x56, 0x75, 0x3e, 0xb0, 0x15, 0xaf, 0xbc,
  0x30, 0xfe, 0xfe, 0xbc, 0x6b, 0xaa, 0x5b, 0x3e, 0x92, 0x10, 0xf9, 0x3d,
  0xe0, 0x29, 0xb1, 0x3d, 0xa9, 0x29, 0xde, 0xbd, 0xd6, 0xd3, 0xe6, 0xbe,
  0xf8, 0xea, 0xad, 0x3d, 0xaa, 0xf9, 0x9c, 0xbc, 0x94, 0xf0, 0xc1, 0xbe,
  0xf9, 0xa5, 0x8d, 0xbe, 0x65, 0x57, 0x92, 0xbc, 0xba, 0x2a, 0x07, 0xbf,
  0x45, 0xe0, 0x61, 0x3e, 0x54, 0x50, 0x4a, 0x3e, 0x75, 0xb8, 0x55, 0x3e,
  0xb8, 0x4e, 0xb4, 0xbd, 0xff, 0xf1, 0x9d, 0x3c, 0x9b, 0x11, 0xe2, 0x3d,
  0x5e, 0x4d, 0x9a, 0xbd, 0x0d, 0xbf, 0xf9, 0x3c, 0x95, 0xe6, 0x87, 0xbc,
  0x36, 0xec, 0x08, 0xbf, 0x08, 0x1f, 0x80, 0x3c, 0xf5, 0x48, 0xb0, 0xbe,
  0x14, 0x99, 0xdc, 0xbe, 0x5e, 0x13, 0xc1, 0xbe, 0x8e, 0xb2, 0xc4, 0xbd,
  0x13, 0x16, 0x25, 0xbf, 0xad, 0x16, 0x03, 0x3e, 0xbc, 0x1f, 0xd0, 0x3d,
  0x1a, 0x8b, 0x2b, 0x3d, 0x29, 0x15, 0x87, 0xbc, 0x4e, 0x19, 0x91, 0x3d,
  0x02, 0xf9, 0x06, 0x3e, 0xc3, 0xa7, 0x85, 0x3c, 0x8e, 0x51, 0xa6, 0x3d,
  0x6a, 0x95, 0x24, 0xbd, 0x99, 0x8f, 0xc6, 0xba, 0x52, 0x99, 0xae, 0xbd,
  0xef, 0x70, 0x03, 0xbe, 0x15, 0xf9, 0xc7, 0xbe, 0xb2, 0xae, 0x75, 0xbc,
  0xf6, 0x48, 0x58, 0x3d, 0x46, 0x01, 0x72, 0xbe, 0xa7, 0x58, 0xb0, 0x3e,
  0x09, 0xeb, 0x55, 0x3d, 0xac, 0x45, 0x4c, 0x3e, 0x6d, 0x69, 0x35, 0xbe,
  0x2b, 0x88, 0x16, 0xbd, 0xef, 0x7e, 0x3e, 0xbc, 0x21, 0x5e, 0x2b, 0xbe,
  0xb7, 0x82, 0xa6, 0x3e, 0x6c, 0x8f, 0x3d, 0xbe, 0x1c, 0x7d, 0xcd, 0x3d,
  0xf2, 0xba, 0x76, 0x3d, 0x96, 0xb3, 0x97, 0x3e, 0x5a, 0xe6, 0x29, 0xbe,
  0x5d, 0x0f, 0x0e, 0x3f, 0x61, 0x63, 0x61, 0x3e, 0x97, 0x4b, 0xd6, 0xbd,
  0xf9, 0x41, 0xab, 0xbe, 0x23, 0x50, 0x67, 0x3d, 0x2a, 0x3c, 0xf2, 0xbd,
  0x0d, 0xff, 0x26, 0xbf, 0x76, 0x4d, 0x86, 0x3d, 0xcb, 0x9c, 0x06, 0xbd,
  0x14, 0x4b, 0x1e, 0xbe, 0x46, 0x26, 0x49, 0x3c, 0x36, 0xe8, 0x26, 0x3c,
  0x81, 0xc1, 0xda, 0xbe, 0xc0, 0x1b, 0x1f, 0xbd, 0xbe, 0x27, 0x48, 0x3d,
  0x9d, 0x80, 0x27, 0xbd, 0xb3, 0x7e, 0x26, 0xbe, 0x12, 0x94, 0x9e, 0xbe,
  0xc6, 0x5f, 0x53, 0x3e, 0xf4, 0xdc, 0x88, 0xbd, 0x09, 0x37, 0x13, 0xbd,
  0x1c, 0x23, 0x86, 0xbe, 0x50, 0x37, 0x19, 0xbf, 0xf1, 0xa6, 0x29, 0xbe,
  0x34, 0x23, 0x0e, 0x3e, 0x8a, 0x9e, 0x0c, 0xbd, 0x53, 0x2e, 0x93, 0xbd,
  0xcc, 0xaa, 0x9e, 0x3d, 0x1c, 0xb3, 0x07, 0xbf, 0x53, 0x87, 0x53, 0xbd,
  0x8e, 0x8c, 0x79, 0xbe, 0x66, 0x22, 0xb4, 0xbd, 0x9f, 0x82, 0xfd, 0xbe,
  0xd6, 0xc1, 0x1a, 0xbe, 0xfa, 0xe3, 0x6a, 0x3d, 0xdb, 0x56, 0xff, 0x3d,
  0x4b, 0xe6, 0x95, 0x3d, 0x7c, 0xdf, 0xa0, 0xbe, 0x92, 0x62, 0xdf, 0xbe,
  0xc2, 0xa9, 0x1e, 0xbf, 0x8f, 0x93, 0x0f, 0xbe, 0x2f, 0x91, 0x82, 0xbe,
  0xdf, 0x48, 0x76, 0xbd, 0x6a, 0x80, 0x63, 0x3d, 0x36, 0xfb, 0xeb, 0xbe,
  0xa4, 0x7b, 0xe7, 0xbd, 0x7e, 0x7f, 0x09, 0xbf, 0xb7, 0x4a, 0xca, 0xbe,
  0x80, 0x2f, 0xe9, 0xbe, 0x46, 0x8d, 0x80, 0xbc, 0x9f, 0x05, 0xc1, 0xbe,
  0xa2, 0x78, 0xf5, 0xbd, 0x86, 0x0b, 0x10, 0x3e, 0x80, 0x5f, 0xa3, 0xbd,
  0xb9, 0x02, 0x9d, 0xbd, 0x23, 0x70, 0xdc, 0xbe, 0x52, 0x8e, 0xf2, 0xbd,
  0x85, 0x87, 0x3d, 0x3e, 0x91, 0xec, 0x8b, 0xbd, 0x6b, 0x7e, 0x15, 0x3d,
  0xe1, 0x25, 0x93, 0x3d, 0x54, 0x9d, 0x20, 0xbd, 0x4b, 0xb4, 0xb8, 0xbd,
  0x81, 0x2e, 0xf2, 0xbc, 0x72, 0x65, 0x0c, 0xbe, 0x51, 0x50, 0x52, 0x3d,
  0x2d, 0x03, 0x66, 0xbd, 0xd8, 0x45, 0xf2, 0xbd, 0x4d, 0x20, 0x16, 0x3d,
  0x74, 0xa3, 0x9c, 0x3e, 0xb2, 0x0d, 0x69, 0xbd, 0x18, 0xe6, 0xd0, 0x3c,
  0x0c, 0xdc, 0x14, 0x3e, 0x3f, 0x33, 0x10, 0xbe, 0xc1, 0xf2, 0xab, 0xbc,
  0xda, 0x1d, 0xc5, 0xbd, 0x46, 0xcb, 0x05, 0xbe, 0xf1, 0xdc, 0xe9, 0xbc,
  0x77, 0xf9, 0x6d, 0x3e, 0x5a, 0x96, 0x03, 0xbf, 0x89, 0x2b, 0xe4, 0x3e,
  0x3e, 0xf9, 0x1a, 0x3e, 0x74, 0x2a, 0x80, 0x3d, 0xac, 0x5f, 0x44, 0xbd,
  0x5a, 0xe7, 0x12, 0xbe, 0x72, 0xae, 0x2b, 0xbd, 0x87, 0xb2, 0x1c, 0xbe,
  0xd0, 0xcb, 0x0c, 0x3e, 0x44, 0x34, 0x81, 0xbe, 0x5a, 0xa7, 0xb0, 0xbd,
  0xf6, 0x1f, 0x23, 0xbd, 0x95, 0x93, 0xbe, 0xbd, 0xef, 0x18, 0x37, 0xbd,
  0x52, 0xcd, 0x8c, 0xbd, 0xa5, 0x5e, 0x1d, 0xbd, 0x0e, 0xa5, 0xb3, 0xbd,
  0xe6, 0x56, 0xcd, 0x3c, 0x9a, 0x0d, 0x43, 0x3d, 0x03, 0x91, 0xd9, 0x3d,
  0x0f, 0x09, 0x55, 0xbd, 0x06, 0xc8, 0x59, 0xbc, 0x70, 0xa8, 0xc5, 0x3d,
  0x09, 0x07, 0x4f, 0x3c, 0x4e, 0x14, 0x7d, 0xbe, 0xb4, 0x9c, 0x35, 0xbd,
  0x05, 0xd5, 0x71, 0xbe, 0xe3, 0x71, 0x3e, 0xbe, 0xda, 0x34, 0x48, 0xbe,
  0xfc, 0xab, 0x20, 0x3d, 0xb3, 0x65, 0x4a, 0xbe, 0x21, 0xc6, 0x74, 0xbe,
  0x48, 0xe0, 0x2c, 0xbe, 0x05, 0x0c, 0x1c, 0x3e, 0xe5, 0xeb, 0x69, 0x3d,
  0xa4, 0x93, 0x1e, 0x3d, 0x1d, 0x72, 0x08, 0x3e, 0x53, 0x35, 0x42, 0xbe,
  0x76, 0xef, 0x6e, 0xbe, 0x13, 0xfb, 0x87, 0xbe, 0x7d, 0xa2, 0x69, 0xbe,
  0x59, 0x73, 0x93, 0xbd, 0x00, 0x1b, 0x46, 0x3d, 0x87, 0xe0, 0x43, 0xbe,
  0x68, 0x42, 0x56, 0xbe, 0x91, 0x8b, 0x7a, 0x3d, 0xb5, 0xa3, 0xfc, 0xbd,
  0xa7, 0xf8, 0x25, 0xbe, 0x56, 0x02, 0x1e, 0xbe, 0x08, 0x02, 0x86, 0x3d,
  0x41, 0xc2, 0x84, 0xbd, 0x4d, 0x1d, 0xf2, 0x3b, 0xf0, 0x95, 0xd2, 0x3d,
  0xbf, 0x90, 0xc9, 0x3b, 0xfa, 0x66, 0x0a, 0xbc, 0x50, 0xc9, 0xe7, 0xbd,
  0x3f, 0xd3, 0x6e, 0xbe, 0x67, 0x5e, 0xcf, 0xbc, 0x81, 0x1f, 0x9e, 0x3b,
  0x59, 0x6d, 0x69, 0xbe, 0x4e, 0x7c, 0xc5, 0xbd, 0x62, 0xc2, 0x33, 0xbe,
  0x43, 0x8f, 0x7a, 0xbe, 0xe9, 0x00, 0x6f, 0xbd, 0xaa, 0x3f, 0x2a, 0xbd,
  0x22, 0x62, 0x01, 0x3c, 0x3c, 0x6b, 0x4b, 0x3d, 0x30, 0x9a, 0xdb, 0x3d,
  0x33, 0x7e, 0x4b, 0x3d, 0xa9, 0x5d, 0xfc, 0x3d, 0x14, 0xf9, 0x06, 0x3e,
  0x3f, 0xcb, 0x99, 0xbd, 0x29, 0x81, 0x69, 0x3d, 0x41, 0x6e, 0xfd, 0x3d,
  0x6b, 0xf6, 0x04, 0xbe, 0x32, 0x18, 0x11, 0xbe, 0xcf, 0x41, 0x77, 0xbe,
  0x61, 0xd8, 0x6c, 0xbc, 0x56, 0xe2, 0x15, 0xbe, 0x32, 0x5f, 0x0f, 0xbe,
  0x91, 0x63, 0xb0, 0x3d, 0xd7, 0xdd, 0xac, 0xbd, 0x9d, 0x0c, 0xcd, 0xbd,
  0x94, 0x0f, 0xd9, 0x3d, 0x23, 0x59, 0x3e, 0xbe, 0x8d, 0x5e, 0xc5, 0xbd,
  0xa3, 0x13, 0xaa, 0x3c, 0x48, 0x6f, 0x44, 0xbd, 0x06, 0xb6, 0x13, 0x3d,
  0x93, 0x90, 0xf2, 0x3d, 0x9e, 0xc0, 0xce, 0x3d, 0x99, 0xa1, 0x7d, 0xbd,
  0xd0, 0xa2, 0xac, 0xbd, 0x69, 0x76, 0x63, 0xbe, 0x25, 0xe6, 0x8c, 0xbe,
  0x04, 0x53, 0xb6, 0xbc, 0x6a, 0xe4, 0x69, 0xbe, 0xa5, 0xc4, 0xb9, 0xbd,
  0xfc, 0xce, 0x5b, 0xbe, 0x1e, 0xaf, 0x77, 0xbc, 0x0f, 0x91, 0x42, 0xbe,
  0xae, 0x6f, 0x06, 0xbe, 0xf8, 0x54, 0x4b, 0x3d, 0x47, 0x96, 0x58, 0xbe,
  0x1c, 0xa0, 0x85, 0xbd, 0x7a, 0x3b, 0x86, 0x3d, 0x48, 0xc0, 0x22, 0xbe,
  0x63, 0x71, 0x2c, 0xbd, 0xde, 0x90, 0xa0, 0x3d, 0xe5, 0xb9, 0xce, 0x3c,
  0x12, 0x0a, 0x59, 0xbe, 0x84, 0x6a, 0x8f, 0xbe, 0xae, 0xa2, 0x8a, 0xbe,
  0x24, 0x4d, 0x35, 0xbe, 0xfd, 0xf2, 0x36, 0xbd, 0xa7, 0x3e, 0x9a, 0xbd,
  0x0f, 0x83, 0xd7, 0x3d, 0x4f, 0x73, 0x83, 0xbe, 0xc2, 0xae, 0x30, 0xbe,
  0xe7, 0xed, 0xc6, 0xbd, 0xae, 0x24, 0x49, 0x3d, 0xde, 0x01, 0x3f, 0x3d,
  0x37, 0x06, 0xaa, 0x3d, 0x62, 0x28, 0x57, 0xbe, 0x5e, 0x1d, 0x6d, 0x3b,
  0x59, 0xdc, 0x82, 0xbe, 0xbc, 0xd7, 0x8e, 0xbe, 0xe4, 0xcb, 0xf4, 0xbb,
  0x86, 0x95, 0xe1, 0xbc, 0xba, 0x19, 0xb2, 0xbd, 0xb6, 0xc5, 0xe8, 0xbc,
  0x6f, 0x49, 0x08, 0x3d, 0x95, 0x16, 0x2a, 0x3e, 0xbd, 0x65, 0x46, 0xbe,
  0xc5, 0x68, 0x12, 0xbe, 0x66, 0x77, 0x75, 0xbe, 0x73, 0x8e, 0xeb, 0x3d,
  0x0a, 0xfa, 0xec, 0x3e, 0xc4, 0xa5, 0xfb, 0xbd, 0xcf, 0xf5, 0xa0, 0xbe,
  0x82, 0x47, 0x93, 0xbe, 0xf6, 0x15, 0x0d, 0xbe, 0xfe, 0x62, 0xbb, 0xbe,
  0x95, 0x83, 0x87, 0xbd, 0x3d, 0x5b, 0x18, 0x3f, 0xec, 0x73, 0x6b, 0xbe,
  0xab, 0x42, 0xbc, 0xbe, 0xd3, 0x4b, 0x62, 0xbe, 0xfd, 0x7d, 0x16, 0x3e,
  0x63, 0xf7, 0x17, 0xbd, 0xa9, 0x23, 0x4b, 0xbe, 0x31, 0x3d, 0x0d, 0xbd,
  0xd0, 0x66, 0x01, 0xbe, 0x52, 0x42, 0x51, 0x3e, 0xc1, 0xba, 0x14, 0x3e,
  0x2e, 0x0d, 0xa0, 0xbe, 0xd3, 0x65, 0x14, 0xbd, 0xe8, 0x80, 0x37, 0xbe,
  0xb0, 0xfb, 0xaf, 0xbe, 0x79, 0xfb, 0x80, 0xbe, 0x59, 0xb7, 0x69, 0x3e,
  0x17, 0x79, 0x8a, 0x3f, 0x2a, 0xbc, 0x28, 0x3e, 0x96, 0x55, 0x0a, 0xbd,
  0x5e, 0xd6, 0x48, 0x3c, 0x2a, 0x6d, 0xcd, 0xbd, 0x77, 0x4c, 0x12, 0xbe,
  0xfa, 0x09, 0x39, 0xbe, 0xc5, 0x68, 0x6c, 0xbe, 0x37, 0x2c, 0xb7, 0x3e,
  0x0a, 0xeb, 0x0a, 0xbd, 0x0f, 0x23, 0xfc, 0xbd, 0x88, 0xa4, 0xa7, 0xbd,
  0x3b, 0x2b, 0x84, 0xbe, 0xcd, 0xf2, 0xf1, 0xbe, 0xf8, 0xd4, 0xdc, 0xbd,
  0x3d, 0x28, 0xc8, 0x3e, 0xa9, 0x97, 0xe8, 0x3f, 0xf1, 0x97, 0x7e, 0xbd,
  0xf3, 0xe2, 0x44, 0xba, 0x89, 0xbf, 0xbb, 0xbc, 0x49, 0x48, 0x28, 0xbd,
  0x51, 0x1d, 0x44, 0x3d, 0x94, 0x0d, 0x76, 0x3b, 0x14, 0xec, 0x9a, 0xbe,
  0x47, 0xb5, 0x7f, 0x3e, 0x52, 0x9b, 0xf2, 0x3d, 0xb9, 0x73, 0xdc, 0xbd,
  0xe5, 0xd0, 0x18, 0xbe, 0x6c, 0x37, 0xba, 0x3a, 0x9c, 0xb7, 0xd4, 0xbe,
  0xbc, 0x09, 0x2e, 0xbd, 0x47, 0xcd, 0x6e, 0x3f, 0xe9, 0x28, 0xd4, 0x3f,
  0x71, 0x38, 0xdb, 0x3d, 0x9e, 0xcb, 0x30, 0x3e, 0xc5, 0xe9, 0x3b, 0xbe,
  0x83, 0x4a, 0xc3, 0xbd, 0xd9, 0x81, 0xf6, 0xbd, 0x60, 0x1c, 0x2c, 0xbe,
  0x7b, 0x61, 0xe6, 0xbb, 0xa3, 0x38, 0xce, 0x3e, 0xd3, 0xc6, 0x48, 0x3c,
  0xda, 0x63, 0x6f, 0xbe, 0x13, 0x2b, 0x6a, 0xbe, 0x40, 0x48, 0xbd, 0xbc,
  0xcc, 0xa1, 0xde, 0xbe, 0xe8, 0xf1, 0xad, 0xbe, 0x86, 0x3b, 0x34, 0x3f,
  0x49, 0x33, 0x19, 0x3f, 0x23, 0x93, 0x88, 0xbe, 0x6c, 0x81, 0x5e, 0x3e,
  0x15, 0xd6, 0x55, 0xbe, 0x52, 0x98, 0x02, 0xbe, 0x23, 0x8f, 0x29, 0x3d,
  0xd2, 0xcd, 0xb6, 0xbd, 0x87, 0x04, 0x7c, 0xbe, 0xbb, 0x38, 0x1e, 0x3f,
  0x7f, 0xa9, 0x39, 0x3d, 0x46, 0x0d, 0x43, 0xbe, 0x3c, 0x2e, 0xb7, 0xbd,
  0x46, 0x21, 0xd6, 0xbd, 0xbf, 0x55, 0xc5, 0xbe, 0x4b, 0xf4, 0x85, 0xbe,
  0xfd, 0x3f, 0x90, 0x3e, 0xbd, 0x59, 0xa0, 0x3e, 0x96, 0xf7, 0x6b, 0xbd,
  0xda, 0xe0, 0x89, 0xbc, 0x03, 0x80, 0xe8, 0xbb, 0xf4, 0xc1, 0x26, 0x3e,
  0xf5, 0x22, 0x8c, 0xbd, 0x8f, 0x85, 0x91, 0xbc, 0xa1, 0xb9, 0x9c, 0xbe,
  0x24, 0x2f, 0x00, 0x3f, 0x3f, 0x6c, 0x45, 0xbd, 0x02, 0x23, 0xb3, 0xbd,
  0xae, 0x12, 0xef, 0xbd, 0x22, 0x29, 0xa2, 0xbe, 0x74, 0xa0, 0x95, 0xbe,
  0x3e, 0x0d, 0x7e, 0xbe, 0x9a, 0x24, 0x3a, 0x3e, 0xcc, 0x77, 0xd8, 0x3d,
  0x9c, 0xdb, 0x51, 0xbe, 0x7b, 0xdd, 0xd4, 0x3d, 0x37, 0x16, 0x54, 0x3d,
  0xd3, 0x50, 0xaa, 0xbd, 0x62, 0xfd, 0xff, 0xff, 0x10, 0x00, 0x00, 0x00,
  0x07, 0x00, 0x00, 0x00, 0x14, 0x00, 0x00, 0x00, 0x2c, 0x00, 0x00, 0x00,
  0x02, 0x00, 0x00, 0x00, 0x10, 0x00, 0x00, 0x00, 0x70, 0x00, 0x00, 0x00,
  0x17, 0x00, 0x00, 0x00, 0x73, 0x65, 0x71, 0x75, 0x65, 0x6e, 0x74, 0x69,
  0x61, 0x6c, 0x2f, 0x64, 0x65, 0x6e, 0x73, 0x65, 0x2f, 0x4d, 0x61, 0x74,
  0x4d, 0x75, 0x6c, 0x00, 0xcc, 0xfc, 0xff, 0xff, 0xd6, 0xfd, 0xff, 0xff,
  0x04, 0x00, 0x00, 0x00, 0x08, 0x00, 0x00, 0x00, 0xff, 0xff, 0xff, 0xff,
  0x70, 0x00, 0x00, 0x00, 0x00, 0x00, 0x0e, 0x00, 0x18, 0x00, 0x08, 0x00,
  0x07, 0x00, 0x0c, 0x00, 0x10, 0x00, 0x14, 0x00, 0x0e, 0x00, 0x00, 0x00,
  0x00, 0x00, 0x00, 0x02, 0x10, 0x00, 0x00, 0x00, 0x06, 0x00, 0x00, 0x00,
  0x10, 0x00, 0x00, 0x00, 0x2c, 0x00, 0x00, 0x00, 0x01, 0x00, 0x00, 0x00,
  0x02, 0x00, 0x00, 0x00, 0x18, 0x00, 0x00, 0x00, 0x73, 0x65, 0x71, 0x75,
  0x65, 0x6e, 0x74, 0x69, 0x61, 0x6c, 0x2f, 0x66, 0x6c, 0x61, 0x74, 0x74,
  0x65, 0x6e, 0x2f, 0x43, 0x6f, 0x6e, 0x73, 0x74, 0x00, 0x00, 0x00, 0x00,
  0x34, 0xfd, 0xff, 0xff, 0x3e, 0xfe, 0xff, 0xff, 0x04, 0x00, 0x00, 0x00,
  0x10, 0x00, 0x00, 0x00, 0xed, 0x6a, 0x48, 0xc0, 0xd7, 0x55, 0x77, 0xc0,
  0x2a, 0xce, 0xf6, 0x3f, 0x58, 0x78, 0x46, 0x3f, 0x26, 0xfe, 0xff, 0xff,
  0x10, 0x00, 0x00, 0x00, 0x05, 0x00, 0x00, 0x00, 0x10, 0x00, 0x00, 0x00,
  0x44, 0x00, 0x00, 0x00, 0x01, 0x00, 0x00, 0x00, 0x04, 0x00, 0x00, 0x00,
  0x32, 0x00, 0x00, 0x00, 0x73, 0x65, 0x71, 0x75, 0x65, 0x6e, 0x74, 0x69,
  0x61, 0x6c, 0x2f, 0x64, 0x65, 0x6e, 0x73, 0x65, 0x5f, 0x31, 0x2f, 0x42,
  0x69, 0x61, 0x73, 0x41, 0x64, 0x64, 0x2f, 0x52, 0x65, 0x61, 0x64, 0x56,
  0x61, 0x72, 0x69, 0x61, 0x62, 0x6c, 0x65, 0x4f, 0x70, 0x2f, 0x72, 0x65,
  0x73, 0x6f, 0x75, 0x72, 0x63, 0x65, 0x00, 0x00, 0xa8, 0xfd, 0xff, 0xff,
  0xb2, 0xfe, 0xff, 0xff, 0x04, 0x00, 0x00, 0x00, 0x40, 0x00, 0x00, 0x00,
  0x85, 0x58, 0xf4, 0xbe, 0xc1, 0x5f, 0x42, 0xbe, 0x5a, 0x3b, 0x6c, 0xbf,
  0xe0, 0x2a, 0x4d, 0x3e, 0x8b, 0xf3, 0x5c, 0xbf, 0xe4, 0x9d, 0xd0, 0xbd,
  0xa9, 0x74, 0x06, 0x3f, 0xb7, 0x28, 0xc8, 0xbf, 0x34, 0x39, 0x91, 0x3f,
  0x80, 0xc2, 0x55, 0x40, 0x82, 0x02, 0x13, 0x40, 0x51, 0x27, 0x68, 0xbf,
  0x9a, 0x05, 0x6a, 0x40, 0x63, 0x10, 0xb6, 0xbf, 0x33, 0x70, 0xaa, 0xbe,
  0x70, 0x2f, 0xce, 0x3f, 0xca, 0xfe, 0xff, 0xff, 0x10, 0x00, 0x00, 0x00,
  0x04, 0x00, 0x00, 0x00, 0x10, 0x00, 0x00, 0x00, 0x44, 0x00, 0x00, 0x00,
  0x01, 0x00, 0x00, 0x00, 0x10, 0x00, 0x00, 0x00, 0x30, 0x00, 0x00, 0x00,
  0x73, 0x65, 0x71, 0x75, 0x65, 0x6e, 0x74, 0x69, 0x61, 0x6c, 0x2f, 0x64,
  0x65, 0x6e, 0x73, 0x65, 0x2f, 0x42, 0x69, 0x61, 0x73, 0x41, 0x64, 0x64,
  0x2f, 0x52, 0x65, 0x61, 0x64, 0x56, 0x61, 0x72, 0x69, 0x61, 0x62, 0x6c,
  0x65, 0x4f, 0x70, 0x2f, 0x72, 0x65, 0x73, 0x6f, 0x75, 0x72, 0x63, 0x65,
  0x00, 0x00, 0x00, 0x00, 0x4c, 0xfe, 0xff, 0xff, 0x56, 0xff, 0xff, 0xff,
  0x04, 0x00, 0x00, 0x00, 0x40, 0x00, 0x00, 0x00, 0xc8, 0xe0, 0x5b, 0xbe,
  0x85, 0x39, 0x98, 0xbb, 0xc2, 0x39, 0x68, 0x3e, 0xba, 0xd9, 0x68, 0x3f,
  0x67, 0x6a, 0xa4, 0xbf, 0x84, 0x64, 0x11, 0xbf, 0x34, 0x68, 0x7e, 0xbf,
  0x13, 0x4e, 0xaa, 0xbf, 0x94, 0x77, 0x89, 0x3f, 0x2b, 0xf2, 0xe1, 0xbf,
  0x5f, 0xe4, 0x65, 0x40, 0xf3, 0xa9, 0x60, 0x40, 0x1e, 0xc3, 0x8c, 0xbf,
  0xbc, 0xa7, 0xd9, 0xbf, 0x82, 0x90, 0xa4, 0xbd, 0x91, 0xc0, 0x80, 0x3e,
  0x6e, 0xff, 0xff, 0xff, 0x10, 0x00, 0x00, 0x00, 0x03, 0x00, 0x00, 0x00,
  0x10, 0x00, 0x00, 0x00, 0x48, 0x00, 0x00, 0x00, 0x01, 0x00, 0x00, 0x00,
  0x10, 0x00, 0x00, 0x00, 0x33, 0x00, 0x00, 0x00, 0x73, 0x65, 0x71, 0x75,
  0x65, 0x6e, 0x74, 0x69, 0x61, 0x6c, 0x2f, 0x63, 0x6f, 0x6e, 0x76, 0x32,
  0x64, 0x5f, 0x31, 0x2f, 0x42, 0x69, 0x61, 0x73, 0x41, 0x64, 0x64, 0x2f,
  0x52, 0x65, 0x61, 0x64, 0x56, 0x61, 0x72, 0x69, 0x61, 0x62, 0x6c, 0x65,
  0x4f, 0x70, 0x2f, 0x72, 0x65, 0x73, 0x6f, 0x75, 0x72, 0x63, 0x65, 0x00,
  0x04, 0x00, 0x06, 0x00, 0x04, 0x00, 0x00, 0x00, 0x00, 0x00, 0x06, 0x00,
  0x08, 0x00, 0x04, 0x00, 0x06, 0x00, 0x00, 0x00, 0x04, 0x00, 0x00, 0x00,
  0x20, 0x00, 0x00, 0x00, 0xd3, 0x64, 0x02, 0xc0, 0xf4, 0x6d, 0xbc, 0xbf,
  0x81, 0xc6, 0xde, 0xbe, 0xfe, 0x74, 0xaf, 0xbf, 0xe8, 0xcb, 0xf5, 0xbf,
  0xaf, 0x2d, 0x07, 0x3c, 0x99, 0xdf, 0x6c, 0xbf, 0xc8, 0xf3, 0x33, 0xbf,
  0x00, 0x00, 0x0e, 0x00, 0x14, 0x00, 0x04, 0x00, 0x00, 0x00, 0x08, 0x00,
  0x0c, 0x00, 0x10, 0x00, 0x0e, 0x00, 0x00, 0x00, 0x10, 0x00, 0x00, 0x00,
  0x02, 0x00, 0x00, 0x00, 0x10, 0x00, 0x00, 0x00, 0x44, 0x00, 0x00, 0x00,
  0x01, 0x00, 0x00, 0x00, 0x08, 0x00, 0x00, 0x00, 0x31, 0x00, 0x00, 0x00,
  0x73, 0x65, 0x71, 0x75, 0x65, 0x6e, 0x74, 0x69, 0x61, 0x6c, 0x2f, 0x63,
  0x6f, 0x6e, 0x76, 0x32, 0x64, 0x2f, 0x42, 0x69, 0x61, 0x73, 0x41, 0x64,
  0x64, 0x2f, 0x52, 0x65, 0x61, 0x64, 0x56, 0x61, 0x72, 0x69, 0x61, 0x62,
  0x6c, 0x65, 0x4f, 0x70, 0x2f, 0x72, 0x65, 0x73, 0x6f, 0x75, 0x72, 0x63,
  0x65, 0x00, 0x00, 0x00, 0x90, 0xff, 0xff, 0xff, 0x14, 0x00, 0x18, 0x00,
  0x04, 0x00, 0x00, 0x00, 0x08, 0x00, 0x0c, 0x00, 0x10, 0x00, 0x00, 0x00,
  0x00, 0x00, 0x14, 0x00, 0x14, 0x00, 0x00, 0x00, 0x14, 0x00, 0x00, 0x00,
  0x01, 0x00, 0x00, 0x00, 0x20, 0x00, 0x00, 0x00, 0x44, 0x00, 0x00, 0x00,
  0x2c, 0x00, 0x00, 0x00, 0x04, 0x00, 0x00, 0x00, 0x01, 0x00, 0x00, 0x00,
  0x40, 0x00, 0x00, 0x00, 0x03, 0x00, 0x00, 0x00, 0x01, 0x00, 0x00, 0x00,
  0x0c, 0x00, 0x00, 0x00, 0x63, 0x6f, 0x6e, 0x76, 0x32, 0x64, 0x5f, 0x69,
  0x6e, 0x70, 0x75, 0x74, 0x00, 0x00, 0x00, 0x00, 0x04, 0x00, 0x00, 0x00,
  0xff, 0xff, 0xff, 0xff, 0x40, 0x00, 0x00, 0x00, 0x03, 0x00, 0x00, 0x00,
  0x01, 0x00, 0x00, 0x00, 0xfc, 0xff, 0xff, 0xff, 0x04, 0x00, 0x04, 0x00,
  0x04, 0x00, 0x00, 0x00
};

unsigned int model_tflite_len = 13120;// Fill the int in `src/model.cc` here